<unk>	0
<s>	0
</s>	0
.	-3.10679
,	-3.22263
n	-3.86907
▁ja	-3.95963
▁br	-4.16828
a	-4.39671
▁	-4.62834
▁oli	-4.64223
t	-4.84382
▁ei	-5.02766
▁"	-5.08903
i	-5.09099
▁hän	-5.19034
▁“	-5.21401
▁on	-5.27863
ä	-5.36681
▁että	-5.38888
en	-5.44002
in	-5.48295
▁”	-5.52596
▁mutta	-5.57719
▁se	-5.59255
▁kuin	-5.69983
▁kun	-5.7029
▁hänen	-5.71876
kin	-5.72295
sta	-5.73909
si	-5.75562
”,	-5.75669
▁Hän	-5.77391
an	-5.79486
ta	-5.79775
lle	-5.8753
u	-5.93976
s	-5.94022
▁ollut	-5.94044
",	-5.99428
▁niin	-6.0194
▁sen	-6.05521
▁olisi	-6.06023
ni	-6.08138
lla	-6.0968
.”	-6.10865
-	-6.14005
ssa	-6.16476
e	-6.1648
▁vain	-6.16551
ko	-6.18356
vat	-6.20136
nsa	-6.21059
?	-6.22493
?”	-6.28247
ksi	-6.30158
ja	-6.32089
▁joka	-6.34809
sti	-6.35579
maan	-6.37539
▁sitten	-6.37671
▁jo	-6.4149
▁ole	-6.43094
▁sanoi	-6.488
▁sitä	-6.48963
▁mitä	-6.49083
h	-6.50079
."	-6.53364
r	-6.55454
o	-6.55586
...	-6.56787
lta	-6.57068
tä	-6.57776
▁nyt	-6.59344
▁tai	-6.59355
▁tämän	-6.60137
▁mitään	-6.64152
?"	-6.65312
▁he	-6.66635
nut	-6.66888
sa	-6.67788
ista	-6.68084
y	-6.68592
▁olivat	-6.69341
▁olla	-6.69856
▁tämä	-6.699
mme	-6.70373
l	-6.70472
▁Harry	-6.72345
isi	-6.72624
▁kanssa	-6.75447
▁vielä	-6.76408
na	-6.76784
stä	-6.7746
tti	-6.78789
▁siitä	-6.78853
ki	-6.81093
ke	-6.82273
▁häntä	-6.83568
▁jos	-6.8684
▁Se	-6.87652
!”	-6.89488
▁–	-6.90093
vät	-6.90346
ku	-6.91681
van	-6.92484
än	-6.92761
:	-6.93429
!	-6.93467
ka	-6.93539
▁en	-6.93942
ri	-6.95123
inen	-6.96316
▁vaikka	-6.96349
▁eikä	-6.9742
▁ettei	-6.9744
on	-6.98078
te	-6.98399
▁minä	-7.01762
▁voi	-7.02116
ma	-7.02252
tu	-7.02502
▁jotain	-7.03144
▁sillä	-7.05345
is	-7.06013
kaan	-7.06384
▁edes	-7.07647
neet	-7.08609
llä	-7.09813
▁ku	-7.0995
▁ennen	-7.10207
▁takaisin	-7.11827
▁kaikki	-7.12206
m	-7.14209
▁sanoo	-7.14425
▁sinä	-7.14444
▁Ja	-7.15086
▁sai	-7.15256
va	-7.159
▁kuitenkin	-7.15906
to	-7.16166
nä	-7.16686
▁enää	-7.17065
▁me	-7.17955
ra	-7.1917
▁heidän	-7.19381
la	-7.19449
us	-7.19553
▁ne	-7.19751
▁pois	-7.21157
▁koska	-7.21186
et	-7.21306
pa	-7.21376
▁Ei	-7.22509
sä	-7.22869
▁Lari	-7.22959
▁mies	-7.23718
ille	-7.24113
▁vaan	-7.24292
kseen	-7.24741
ssä	-7.2793
▁koko	-7.27969
▁et	-7.28205
▁Elias	-7.29423
essa	-7.29505
▁kysyi	-7.29517
▁aina	-7.30478
▁hyvin	-7.3071
tta	-7.31306
▁jälkeen	-7.32763
▁ihan	-7.32924
re	-7.33115
▁hänet	-7.33747
▁saa	-7.37206
▁kiinni	-7.38035
kään	-7.38088
▁myös	-7.38762
un	-7.39037
mään	-7.39163
ne	-7.39813
▁taas	-7.40063
▁mä	-7.40569
▁paljon	-7.4093
▁He	-7.41379
▁koskaan	-7.42462
kä	-7.45682
▁Mutta	-7.4646
▁aivan	-7.46554
Ei	-7.46615
ti	-7.47272
pi	-7.47449
▁vasten	-7.4746
se	-7.47591
kö	-7.4773
▁siihen	-7.47854
lo	-7.47904
▁kätensä	-7.48092
illa	-7.48094
aan	-7.49161
▁sä	-7.49314
ro	-7.49464
ltä	-7.49509
ten	-7.50462
▁itse	-7.50679
pu	-7.51
nyt	-7.51325
▁voinut	-7.51415
▁vai	-7.51461
▁juuri	-7.52106
tte	-7.52247
▁katsoi	-7.53185
▁ovat	-7.53861
ve	-7.53962
vi	-7.54169
▁jonka	-7.5461
istä	-7.55465
▁eivät	-7.55854
▁miten	-7.55921
▁kyllä	-7.56595
En	-7.57133
jä	-7.57591
hän	-7.57959
▁Hänen	-7.58711
▁toisen	-7.59254
▁kai	-7.5965
minen	-7.60035
ia	-7.60148
han	-7.60452
▁la	-7.60678
▁miehen	-7.60862
ttu	-7.60959
▁kuinka	-7.60975
it	-7.61235
▁kohti	-7.61569
▁tuntui	-7.61618
jen	-7.61679
▁aikaa	-7.61715
▁nopeasti	-7.6178
▁jotka	-7.62235
pe	-7.62301
nsä	-7.62475
▁pu	-7.62608
ita	-7.63411
ö	-7.64041
▁hyvä	-7.65261
pä	-7.653
▁En	-7.65315
▁Rauski	-7.65436
▁pi	-7.65441
▁minua	-7.65659
▁olevan	-7.67151
▁siinä	-7.67166
ks	-7.67296
▁hiukan	-7.68159
▁hänelle	-7.6912
▁Draco	-7.69178
k	-7.69432
le	-7.70107
No	-7.70145
▁voisi	-7.70162
”	-7.70286
▁minun	-7.70568
▁vähän	-7.70982
ty	-7.71136
▁ko	-7.71603
nne	-7.71685
li	-7.71808
▁hetken	-7.72123
▁tuo	-7.72689
neen	-7.72873
▁te	-7.7339
!"	-7.73483
▁hi	-7.74053
▁tätä	-7.74404
ttaa	-7.74425
▁mikä	-7.74636
▁pa	-7.75212
▁katseensa	-7.75525
isen	-7.76772
▁samalla	-7.76991
ha	-7.77141
massa	-7.77292
▁hiljaa	-7.7737
vä	-7.77513
da	-7.78475
me	-7.79222
▁tuli	-7.79607
▁käsi	-7.79781
▁olen	-7.80068
▁silmät	-7.8015
▁alkoi	-7.80222
▁enemmän	-7.80344
▁kerran	-7.80568
▁K	-7.80579
issa	-7.80808
kki	-7.80814
▁tehdä	-7.8098
▁saanut	-7.81154
d	-7.81611
▁ehkä	-7.81815
▁liian	-7.81977
ihin	-7.82099
▁halunnut	-7.82235
▁Kun	-7.82434
essä	-7.82686
▁luo	-7.83838
...”	-7.83908
iden	-7.84166
▁Asagi	-7.8421
sin	-7.84373
ään	-7.84544
taan	-7.84967
vän	-7.85022
ttä	-7.85054
▁muuta	-7.8508
kaa	-7.85187
nen	-7.85383
▁tunsi	-7.85485
▁aika	-7.85588
hd	-7.85921
▁vasta	-7.86269
▁ha	-7.86301
Mitä	-7.86504
no	-7.86868
▁Hermione	-7.86987
▁hieman	-7.8725
▁ulos	-7.87634
▁vastasi	-7.87889
▁pitää	-7.88165
▁olet	-7.88657
mi	-7.88669
▁ki	-7.8896
▁kuitenkaan	-7.89151
vaa	-7.89367
de	-7.8951
▁Harryn	-7.89675
▁Hide	-7.89748
p	-7.90062
▁päästä	-7.91352
jo	-7.91691
teli	-7.91691
▁yli	-7.91776
▁kaiken	-7.9184
▁sinua	-7.91888
▁itseään	-7.92287
Minä	-7.92312
staan	-7.92377
▁O	-7.92556
▁oikein	-7.92621
▁kääntyi	-7.92707
lleen	-7.92811
zou	-7.92941
matta	-7.93411
tin	-7.93958
▁näytti	-7.94053
▁tietää	-7.94136
▁a	-7.94549
▁päätään	-7.94873
▁yhtä	-7.95153
▁jälleen	-7.9521
▁ma	-7.95324
▁joku	-7.95525
▁tiesi	-7.96272
▁sinun	-7.96578
▁nousi	-7.96839
▁yritti	-7.96843
▁kaksi	-7.97074
mpi	-7.97316
kka	-7.97542
ho	-7.97767
sen	-7.98098
▁katsomaan	-7.9832
▁yksi	-7.98335
▁täällä	-7.98565
▁halusi	-7.98613
▁pe	-7.98697
▁oven	-7.98763
▁Tämä	-7.99302
▁ylös	-8.00368
▁heti	-8.00512
▁joten	-8.01183
▁Ron	-8.01624
▁kysyy	-8.02079
▁tässä	-8.02126
ili	-8.02139
▁kertaa	-8.02504
▁toinen	-8.02831
tteli	-8.02931
▁Rahikainen	-8.02992
A	-8.03408
▁hymyili	-8.04089
lu	-8.04234
▁Lehto	-8.04554
▁ra	-8.05231
▁le	-8.05377
▁niitä	-8.05389
▁halua	-8.05418
▁kuten	-8.05626
mista	-8.05744
mp	-8.0592
itä	-8.05959
▁Lammio	-8.0626
▁varmasti	-8.06296
mu	-8.06297
▁jää	-8.06335
▁o	-8.07283
mo	-8.07572
▁A	-8.07807
den	-8.07876
rin	-8.08119
tö	-8.08389
he	-8.08578
essaan	-8.08908
▁lopulta	-8.08942
po	-8.0895
▁itsensä	-8.09005
hti	-8.091
llaan	-8.0946
▁ääni	-8.09491
vo	-8.09717
▁silloin	-8.09833
▁pitäisi	-8.09847
▁vilkaisi	-8.10354
▁Jos	-8.10532
▁ke	-8.10552
hi	-8.10581
▁vastaan	-8.10772
▁otti	-8.10829
▁minulle	-8.10834
Se	-8.11091
▁I	-8.11238
vu	-8.11258
▁silti	-8.11342
isesti	-8.11476
ansa	-8.12086
▁ottaa	-8.12367
▁yhä	-8.12409
ru	-8.12504
▁työ	-8.12627
▁to	-8.12905
▁käy	-8.1322
▁alas	-8.13347
▁sano	-8.1374
▁Riitaoja	-8.13808
il	-8.14009
▁siis	-8.14124
▁pää	-8.14266
▁ka	-8.14562
▁melkein	-8.14591
▁vastaa	-8.14652
▁tiedä	-8.14765
▁jossa	-8.15019
su	-8.15209
▁viimein	-8.15443
▁pari	-8.15456
kko	-8.15628
▁todella	-8.15718
ivat	-8.15962
ng	-8.16308
elle	-8.16332
▁jota	-8.1704
▁varma	-8.17364
▁ajan	-8.18126
▁saada	-8.18481
lä	-8.1863
▁vie	-8.18631
▁tullut	-8.18981
mä	-8.19054
▁näin	-8.19358
▁mukaan	-8.19636
▁ta	-8.19829
▁sekä	-8.20288
▁päivä	-8.20393
▁tu	-8.20669
▁siellä	-8.20679
▁Remus	-8.20794
kkaa	-8.20961
▁mennä	-8.21042
ttiin	-8.21098
▁P	-8.21148
▁asia	-8.21254
▁piti	-8.2165
▁jopa	-8.21729
ter	-8.21815
▁kuului	-8.21939
iset	-8.22057
▁po	-8.22101
el	-8.22147
▁sanoa	-8.2215
▁mut	-8.22414
▁täysin	-8.22715
ssaan	-8.2352
▁poika	-8.23756
isin	-8.24063
misen	-8.24079
do	-8.24103
▁läpi	-8.24249
▁pieni	-8.24271
▁Eliaksen	-8.24291
▁silmänsä	-8.24498
▁pitänyt	-8.24548
▁hänellä	-8.24574
▁tulee	-8.24587
▁muu	-8.2464
▁nyökkäsi	-8.24761
▁no	-8.24764
Ja	-8.24905
▁muut	-8.24942
▁pian	-8.25117
c	-8.25683
llis	-8.25822
▁si	-8.26446
di	-8.26493
▁Minä	-8.26517
usta	-8.26581
▁ilman	-8.26662
▁minut	-8.26803
uksen	-8.26951
..."	-8.26963
▁tästä	-8.27071
kas	-8.27382
▁tavalla	-8.27447
▁hymyillen	-8.27812
▁va	-8.27956
maa	-8.28024
▁edelleen	-8.28069
▁so	-8.28548
▁isä	-8.2855
llinen	-8.28637
iä	-8.28685
teen	-8.28819
▁katse	-8.28927
ste	-8.29158
▁Mitä	-8.29292
taa	-8.29412
▁tiennyt	-8.29965
▁miksi	-8.30054
ttää	-8.30133
▁kukaan	-8.30166
▁huomasi	-8.30253
▁tällä	-8.30292
▁osa	-8.30661
hu	-8.30731
▁-	-8.31294
▁olleet	-8.31399
▁muutaman	-8.3146
▁pitkin	-8.3157
at	-8.31792
▁kunnes	-8.31819
sk	-8.32081
I	-8.32082
ys	-8.32176
▁ase	-8.32404
▁r	-8.33081
▁su	-8.33111
▁veti	-8.33272
▁Ka	-8.33347
▁nähnyt	-8.33398
▁S	-8.33418
▁päälle	-8.33582
▁Larin	-8.33744
▁sisään	-8.33877
▁Jean	-8.34361
▁jatkoi	-8.34419
tko	-8.34426
▁li	-8.34451
▁Baekhyun	-8.34615
▁nosti	-8.3466
▁tehnyt	-8.34809
ella	-8.35014
▁puna	-8.35034
▁mun	-8.35154
▁sa	-8.35163
▁Ehkä	-8.35369
▁teki	-8.35396
▁varmaan	-8.35401
▁Oli	-8.35482
Niin	-8.35652
▁näki	-8.35929
▁alkaa	-8.35984
▁suu	-8.36008
▁saisi	-8.36194
▁käveli	-8.36755
O	-8.3692
iin	-8.37153
f	-8.37742
ppi	-8.37991
men	-8.38003
▁ainakin	-8.38007
▁kor	-8.38108
▁takia	-8.38271
mm	-8.38296
yn	-8.38544
▁puhu	-8.38667
▁asti	-8.38949
▁hymy	-8.39111
▁mo	-8.39164
▁Sitten	-8.3926
▁lähti	-8.39372
▁Nyt	-8.39374
v	-8.39821
▁hänestä	-8.40169
utta	-8.40173
▁lisää	-8.40517
▁Severus	-8.40613
kke	-8.40646
▁yhtään	-8.40822
▁ru	-8.41291
▁Sen	-8.41331
▁suoraan	-8.4142
"	-8.4144
kku	-8.41542
isiin	-8.41564
▁E	-8.41704
ut	-8.42318
▁kar	-8.42469
via	-8.42747
ly	-8.42915
tus	-8.43138
▁saattoi	-8.4314
S	-8.43144
▁tänne	-8.43267
▁oo	-8.43312
▁na	-8.43476
▁usko	-8.43478
▁yksin	-8.43604
tää	-8.43623
▁T	-8.43684
ilta	-8.43771
▁tulla	-8.43891
Mutta	-8.43982
▁nähdä	-8.441
een	-8.44101
)	-8.44169
ky	-8.44174
ar	-8.44186
▁ilme	-8.44392
lin	-8.45117
▁jäi	-8.45328
▁tuijotti	-8.45346
mmin	-8.45386
so	-8.45394
▁hitaasti	-8.4553
tele	-8.45552
▁eri	-8.45586
▁vii	-8.45827
kse	-8.45982
▁alla	-8.45988
▁sinulle	-8.46005
▁par	-8.46296
▁nainen	-8.4635
▁V	-8.4646
Mä	-8.4652
isia	-8.46861
▁ti	-8.46992
▁missä	-8.47158
estä	-8.47236
▁painoi	-8.47415
'	-8.47556
▁mene	-8.47561
▁kertoi	-8.47657
▁Ki	-8.48108
san	-8.482
g	-8.4835
▁laski	-8.48445
masta	-8.48526
▁aikana	-8.48547
illä	-8.48775
▁Me	-8.48854
isten	-8.49036
▁pitkään	-8.49308
▁antaa	-8.49546
▁Tai	-8.49763
▁hä	-8.49812
▁naurahti	-8.50235
ensa	-8.50288
E	-8.50324
man	-8.50368
▁Sa	-8.51055
▁siltä	-8.512
▁(	-8.51433
▁lähes	-8.51471
▁auki	-8.51489
▁ympäri	-8.51575
er	-8.51689
▁tulisi	-8.51741
▁heitä	-8.51898
▁pakko	-8.52184
pää	-8.52255
▁varsin	-8.52518
▁lainkaan	-8.52571
▁mieli	-8.5267
▁pienen	-8.52688
▁puoli	-8.52824
ton	-8.52967
▁sanonut	-8.52985
▁joskus	-8.53082
ina	-8.53164
▁Si	-8.53294
▁meidän	-8.53308
▁käänsi	-8.53384
▁mistä	-8.53419
▁silmiin	-8.53483
▁kir	-8.53505
kan	-8.53962
T	-8.54635
▁kädet	-8.54789
seen	-8.55063
ttävä	-8.55112
▁ala	-8.55545
ju	-8.55628
▁tarttui	-8.55673
▁oma	-8.55746
H	-8.55958
▁silmä	-8.56013
▁Ma	-8.56041
▁kotiin	-8.5611
▁Seth	-8.56375
▁huokaisi	-8.56496
▁huolimatta	-8.56502
▁itselleen	-8.56657
▁silmiään	-8.56819
▁ni	-8.56943
▁oikeasti	-8.57039
vasti	-8.57082
▁miestä	-8.57107
▁kovin	-8.57239
▁avasi	-8.57239
▁tuntuu	-8.57286
▁jotta	-8.57301
▁John	-8.57306
▁oikeastaan	-8.57882
▁Sherlock	-8.57996
▁sinut	-8.58001
▁sinne	-8.5802
▁niiden	-8.58092
lli	-8.58113
▁irti	-8.58212
ttanut	-8.58388
▁var	-8.58422
▁muka	-8.5847
▁tähän	-8.58501
▁har	-8.59025
b	-8.59041
▁näyttää	-8.59572
or	-8.59679
▁mie	-8.59729
▁perään	-8.6014
▁syy	-8.60321
▁yö	-8.60349
▁re	-8.60388
----------------	-8.60771
st	-8.60806
▁aikaan	-8.60916
---------------	-8.60944
▁tuntee	-8.60988
▁Chanyeol	-8.61313
▁Ra	-8.61567
▁tunne	-8.6157
▁oman	-8.61657
mättä	-8.62112
▁kuiskasi	-8.62243
▁istui	-8.62256
▁muista	-8.62585
▁mu	-8.62597
▁kuuli	-8.62649
▁ympärille	-8.627
mis	-8.6278
▁hu	-8.62951
▁kyl	-8.62973
▁Vaikka	-8.63009
▁Rauskin	-8.63031
ttua	-8.63118
▁katseli	-8.63118
▁luokse	-8.63132
▁ri	-8.63653
▁sun	-8.63719
ttava	-8.63763
▁meni	-8.63918
▁ääneen	-8.64128
▁sy	-8.64425
P	-8.64546
▁ystävä	-8.64741
▁Mies	-8.64747
▁toista	-8.64879
▁äiti	-8.65186
▁No	-8.65187
▁hetkeksi	-8.65211
▁—	-8.65228
je	-8.65286
▁valmis	-8.65359
▁taakse	-8.65363
▁ensin	-8.65573
tty	-8.6558
▁hetki	-8.65646
▁uudelleen	-8.65661
aa	-8.65686
▁tarvitse	-8.65711
▁takana	-8.65762
▁Määttä	-8.66051
▁epä	-8.66199
▁lu	-8.66343
tun	-8.66364
▁kävi	-8.66471
▁kauan	-8.66501
▁Janne	-8.66526
▁e	-8.6679
▁kolme	-8.66969
▁osaa	-8.67092
▁*	-8.67159
▁sama	-8.67192
▁kä	-8.6727
ää	-8.6729
ellä	-8.67435
▁yhdessä	-8.67551
▁olo	-8.67582
iseen	-8.67631
telu	-8.67821
▁selvästi	-8.67982
L	-8.68003
▁äänellä	-8.6841
mässä	-8.68598
▁alle	-8.68714
iksi	-8.68801
▁muiden	-8.68978
ll	-8.69035
utti	-8.69143
tuu	-8.69313
▁kuu	-8.69357
▁Kaikki	-8.69669
es	-8.6976
▁Ha	-8.69877
misesta	-8.69894
sto	-8.69939
▁lähemmäs	-8.69941
▁tyttö	-8.70032
▁kau	-8.70059
▁muuten	-8.70101
▁samassa	-8.70155
issä	-8.70429
▁yakuza	-8.70445
▁antoi	-8.70483
▁noin	-8.70521
▁koske	-8.70802
llisen	-8.70895
uksia	-8.70899
▁hetkellä	-8.70907
tään	-8.71222
▁Ko	-8.71448
▁ikinä	-8.71449
essään	-8.71517
ji	-8.71584
U	-8.71597
▁sanat	-8.71655
▁Jo	-8.71725
▁kaa	-8.71731
tunut	-8.72051
ppa	-8.72181
malla	-8.72227
▁vi	-8.72319
▁sille	-8.72326
Sinä	-8.72407
▁sie	-8.72415
esta	-8.72484
▁viime	-8.7258
vansa	-8.72615
per	-8.72997
▁yhden	-8.73102
▁ihme	-8.73188
▁kasvot	-8.73191
▁pitkä	-8.73319
vää	-8.73493
▁päänsä	-8.73562
vin	-8.73672
▁välillä	-8.73819
▁soi	-8.73956
▁Ta	-8.74081
▁eteen	-8.74323
▁totesi	-8.74343
ur	-8.7438
▁lähe	-8.74487
▁tajusi	-8.74501
▁Koskela	-8.74592
ot	-8.74602
▁xx	-8.74835
▁toi	-8.7494
▁istumaan	-8.74977
bos	-8.74985
▁paremmin	-8.75056
pin	-8.75256
▁Mä	-8.7528
▁johtaja	-8.75346
ksen	-8.75385
▁päin	-8.75512
▁keho	-8.75533
▁Isildur	-8.75614
M	-8.75765
▁Malfoy	-8.75836
▁ve	-8.75931
▁hy	-8.75934
nnut	-8.76042
▁loi	-8.76318
▁minkä	-8.76366
vien	-8.76368
▁U	-8.76411
▁muisti	-8.76417
▁nämä	-8.76475
▁La	-8.76569
▁mikään	-8.76816
▁kerro	-8.77179
▁kertoa	-8.77516
▁muutama	-8.77527
▁lo	-8.77555
▁aja	-8.77643
Joo	-8.77796
Hän	-8.78027
tyy	-8.78057
▁Te	-8.78104
▁katseen	-8.78112
Älä	-8.7812
▁tule	-8.78128
tiin	-8.78259
▁takaa	-8.78264
▁huusi	-8.78338
▁viereen	-8.78505
▁toimi	-8.78562
▁lähellä	-8.78649
▁muita	-8.78674
▁Dracon	-8.78707
▁sulki	-8.78746
▁ohi	-8.7882
▁jonkun	-8.79023
▁Tony	-8.79323
ee	-8.79426
▁mietti	-8.79464
▁yrittää	-8.79489
▁sijaan	-8.79588
▁suuntaan	-8.79618
▁ajatteli	-8.79653
▁Ne	-8.7972
▁nuori	-8.79783
▁puhua	-8.79951
▁kyse	-8.79952
▁lähteä	-8.79971
ska	-8.80151
▁katsoo	-8.80421
▁niistä	-8.805
▁kuka	-8.80503
▁yhteen	-8.80594
▁Ginny	-8.80883
▁Fisu	-8.80904
▁On	-8.8109
▁1	-8.81246
▁kaikkea	-8.81254
▁pysty	-8.81276
▁toisiaan	-8.81282
▁joita	-8.81395
▁osannut	-8.81717
▁sisälle	-8.81809
▁josta	-8.8181
w	-8.81851
▁To	-8.81882
▁iso	-8.81996
▁myöhemmin	-8.82086
llista	-8.82089
Olen	-8.82185
▁verran	-8.82327
▁käden	-8.82505
ran	-8.82527
▁tar	-8.82556
▁odottaa	-8.82723
▁naisen	-8.8274
kun	-8.82845
▁oikea	-8.82868
ile	-8.82969
▁k	-8.83292
▁Ku	-8.83298
▁kuullut	-8.83385
▁Va	-8.83428
Et	-8.83519
▁jotenkin	-8.83598
▁vanhempi	-8.83616
ver	-8.8367
voi	-8.84005
▁alta	-8.84042
Me	-8.84201
▁astui	-8.84201
K	-8.84391
▁sit	-8.84411
▁syö	-8.84514
▁tuskin	-8.84787
yö	-8.84812
viä	-8.84978
eksi	-8.85261
▁liikaa	-8.85271
▁ilmeisesti	-8.85294
▁lapsi	-8.85426
▁Zappis	-8.85485
Jos	-8.85506
▁saman	-8.85544
▁herra	-8.85559
▁päätti	-8.85587
▁kasvoja	-8.85653
▁juo	-8.85721
▁pikku	-8.85751
sy	-8.85895
▁N	-8.85929
▁Steve	-8.86115
▁asiaa	-8.86342
▁katso	-8.86456
oja	-8.86485
▁esi	-8.86563
▁vaikea	-8.86588
▁edessä	-8.86611
yty	-8.86634
▁lattialle	-8.86674
▁maahan	-8.8687
▁James	-8.86964
▁sivu	-8.87172
nnu	-8.87209
▁totta	-8.87378
▁F	-8.87546
▁eteenpäin	-8.87637
▁Azusa	-8.87724
▁ulko	-8.87937
▁Iida	-8.88013
▁tapa	-8.88049
▁vil	-8.88243
▁mai	-8.88267
▁arvo	-8.88424
▁Marco	-8.88446
äh	-8.88457
▁olisivat	-8.88495
▁sellaista	-8.88849
tellen	-8.89132
▁tapahtunut	-8.89144
▁Chap	-8.89167
▁etsi	-8.89197
ga	-8.89292
▁pojan	-8.89383
▁pala	-8.89415
▁ainoa	-8.89539
▁tahansa	-8.89589
▁lasi	-8.89691
ry	-8.89707
▁kii	-8.89856
lan	-8.89878
▁H	-8.89929
▁kylmä	-8.90002
▁Ke	-8.90094
▁Miksi	-8.90188
▁hellästi	-8.90219
▁asu	-8.9028
▁tiukasti	-8.90319
▁väl	-8.90515
llään	-8.90655
Ai	-8.90663
▁Mana	-8.90671
▁luu	-8.90685
▁G	-8.90703
▁musta	-8.90855
▁odot	-8.91074
▁taka	-8.91094
▁kuulla	-8.91118
mistä	-8.91318
▁kohta	-8.91343
▁Niin	-8.9157
mmi	-8.91597
iko	-8.91643
▁vä	-8.91715
▁ju	-8.91842
mia	-8.91912
▁pöydän	-8.91993
▁jolla	-8.92015
llisesti	-8.92027
▁ympärilleen	-8.92118
▁ro	-8.92129
oi	-8.92254
▁olikin	-8.92304
▁huono	-8.92487
▁lä	-8.92684
▁auto	-8.92941
▁mukana	-8.93118
▁häneen	-8.93248
▁koti	-8.93288
▁aamu	-8.93327
ön	-8.93405
▁kulmiaan	-8.93414
ir	-8.93455
▁jatkaa	-8.93539
▁vei	-8.93606
▁pyöri	-8.93637
Kiitos	-8.93755
▁kahden	-8.9378
▁ihmis	-8.93856
tella	-8.93955
▁mennyt	-8.93963
▁Közi	-8.94087
▁heidät	-8.94268
▁väliin	-8.94329
kää	-8.94333
▁Pu	-8.94354
▁kunnolla	-8.9436
▁parempi	-8.94459
▁seura	-8.94461
▁ehti	-8.94486
▁paitsi	-8.94526
▁istu	-8.94633
▁halu	-8.94784
▁Sirius	-8.94785
din	-8.94899
▁huomaa	-8.9491
▁jokin	-8.94965
▁huo	-8.94972
kea	-8.95058
▁Li	-8.95137
Y	-8.9518
▁seuraa	-8.95184
▁minulla	-8.95303
silmäinen	-8.95565
▁siksi	-8.9564
gi	-8.95794
ken	-8.95912
▁Lehdon	-8.96087
du	-8.96258
set	-8.96312
▁esiin	-8.96489
uh	-8.96519
llo	-8.9659
stään	-8.96656
tui	-8.96789
▁kasva	-8.96925
▁ketään	-8.96936
▁koulu	-8.97035
min	-8.97291
▁oot	-8.97427
miseen	-8.97579
▁tarpeeksi	-8.97587
▁tutki	-8.97624
▁päässä	-8.97657
▁uusi	-8.97815
ven	-8.97981
▁vaati	-8.98035
isti	-8.98046
▁Na	-8.98076
▁tuu	-8.98092
▁sala	-8.98107
jan	-8.98358
▁tuon	-8.98395
Voi	-8.98407
len	-8.9861
▁täytyy	-8.98744
▁ai	-8.98774
kkä	-8.98915
▁kuulu	-8.98932
▁heistä	-8.99031
▁haluaa	-8.99103
raa	-8.99205
▁Sonic	-8.99282
mpaa	-8.99296
▁kohotti	-8.99324
ilu	-8.99325
▁haluaisi	-8.99453
▁ehtinyt	-8.99521
ny	-8.99565
jaan	-8.99576
▁vanha	-8.99613
▁päällä	-8.99913
▁huomannut	-8.99921
esti	-8.99938
R	-8.99947
▁asioita	-9.00024
▁omaa	-9.0033
▁loppu	-9.00331
▁sisällä	-9.00334
var	-9.00347
▁sentään	-9.00352
sivat	-9.00512
▁Rahikaisen	-9.00554
▁hiukset	-9.00673
Kyllä	-9.00746
▁itsekin	-9.00751
▁Sitä	-9.00978
▁tee	-9.01008
▁vaikutti	-9.01013
▁puu	-9.01022
▁s	-9.01031
kasta	-9.0112
▁ho	-9.01161
▁ny	-9.0125
▁suuri	-9.01541
▁rii	-9.01712
▁jostain	-9.01745
dan	-9.01776
lei	-9.01813
▁vuotta	-9.01819
▁virnisti	-9.01842
osta	-9.01921
▁kerta	-9.02051
lmi	-9.02057
▁Mu	-9.02132
▁ilma	-9.02163
▁mutisi	-9.02226
▁Hi	-9.02275
▁päivän	-9.02295
▁suorastaan	-9.02319
lainen	-9.02334
▁kokonaan	-9.02345
▁tö	-9.02532
▁Miten	-9.02609
▁kysy	-9.02646
▁Ruiza	-9.02651
▁sopi	-9.02799
▁aiemmin	-9.02871
ssi	-9.02901
▁seisoi	-9.0301
Miksi	-9.03017
dy	-9.03101
▁kunnossa	-9.03153
utui	-9.03164
os	-9.03212
ppu	-9.03235
▁val	-9.03237
▁Y	-9.03269
▁tänään	-9.03484
ker	-9.03615
▁joutui	-9.03908
py	-9.04102
▁enempää	-9.04123
tee	-9.04128
▁samaa	-9.0413
Hei	-9.04264
▁onnistui	-9.04444
▁J	-9.04444
kuu	-9.04468
▁koke	-9.04577
itte	-9.04596
▁vuoksi	-9.04641
▁Voi	-9.04651
▁tosi	-9.04669
▁pii	-9.04701
▁kutsu	-9.04727
▁virnistää	-9.04795
iseksi	-9.04877
tettu	-9.04939
▁keskellä	-9.04943
▁huomautti	-9.05337
▁entistä	-9.05425
▁kerto	-9.05466
▁käynyt	-9.05502
▁vieressä	-9.05601
▁huudahti	-9.05613
▁puristi	-9.05637
▁valo	-9.05694
ps	-9.05735
▁vaikkei	-9.05903
isiä	-9.06023
▁hau	-9.06071
▁ty	-9.06078
▁pienesti	-9.06095
▁vetää	-9.0611
▁puoleen	-9.06202
▁tanssi	-9.06291
▁kohtaan	-9.06293
▁ver	-9.06385
▁jonkin	-9.06541
▁Isak	-9.06639
▁taistelu	-9.06683
oin	-9.06756
▁monta	-9.06828
▁nautti	-9.06935
▁täynnä	-9.06968
lly	-9.06997
▁menee	-9.0701
▁Vi	-9.07121
▁hyvää	-9.07219
▁siirtyi	-9.07453
▁syvään	-9.07453
▁vir	-9.0748
▁väri	-9.07541
▁tarjo	-9.07564
Onko	-9.07827
my	-9.07953
empi	-9.07964
▁saivat	-9.08035
▁lisäksi	-9.08037
▁ainakaan	-9.08164
▁mur	-9.08168
ensä	-9.08255
▁väli	-9.08257
neena	-9.0827
▁Pa	-9.08294
▁jäänyt	-9.0842
▁kuva	-9.08448
▁yllä	-9.08664
▁nuo	-9.08664
▁tuoksu	-9.08708
▁henkeä	-9.08728
Si	-9.08749
▁yleensä	-9.08941
▁oon	-9.09016
▁huulille	-9.09105
Hyvä	-9.09248
▁vuo	-9.09274
▁tuntunut	-9.09305
toa	-9.09307
ltaan	-9.09325
▁hoi	-9.09365
▁ovelle	-9.09557
▁sanoja	-9.0956
▁haa	-9.09575
▁An	-9.09585
▁perässä	-9.09659
▁jättää	-9.09754
sama	-9.09763
▁Tu	-9.09772
▁lapsen	-9.09826
▁kan	-9.09831
▁sua	-9.10008
▁paikalle	-9.10103
udu	-9.10105
▁juttu	-9.10154
▁voit	-9.10407
▁maailman	-9.1048
tynyt	-9.10673
esi	-9.107
▁asian	-9.10927
▁luki	-9.11105
istu	-9.11159
▁ilo	-9.11181
Miten	-9.11207
▁D	-9.11208
▁kol	-9.11364
▁tunte	-9.11396
hä	-9.11405
▁Bruce	-9.11451
▁sul	-9.11551
▁Ro	-9.11573
▁raa	-9.11616
shi	-9.11624
▁nimi	-9.11685
▁ajatus	-9.11847
▁Su	-9.11848
▁Kariluoto	-9.11859
▁lie	-9.11899
▁hei	-9.1192
▁yön	-9.11964
▁Eikä	-9.11969
tusta	-9.1202
▁mielessään	-9.12043
▁yllättäen	-9.12069
▁enkä	-9.12091
▁ovi	-9.12096
▁tuoli	-9.12123
▁Mi	-9.12137
▁lähtee	-9.12151
▁hal	-9.12315
ge	-9.12404
▁suunsa	-9.12407
yy	-9.12443
▁tuolla	-9.12589
tit	-9.12659
▁pysähtyi	-9.1274
▁käydä	-9.12918
uden	-9.12985
▁jossain	-9.13012
▁tälle	-9.13109
▁Po	-9.13161
▁Sinä	-9.13201
▁Asagin	-9.13278
▁pääse	-9.13319
▁kahvi	-9.13412
▁her	-9.13476
▁välittömästi	-9.13613
▁päivänä	-9.13621
▁Hiroki	-9.13641
▁Ronin	-9.139
▁kur	-9.13954
▁pur	-9.14003
▁pol	-9.14119
▁tekemään	-9.14126
hta	-9.14376
▁sii	-9.14381
▁sisä	-9.14392
ikka	-9.14496
▁auttaa	-9.14686
▁mieltä	-9.14839
▁työnsi	-9.14855
▁näkee	-9.14871
▁ero	-9.14874
▁Proto	-9.14926
▁seisomaan	-9.14967
asta	-9.15024
▁Lammion	-9.15042
▁anteeksi	-9.15256
▁Wei	-9.15303
▁por	-9.15359
ttuaan	-9.15362
▁Olen	-9.15451
▁henkilö	-9.15587
▁Al	-9.15603
▁tosin	-9.1562
uksesta	-9.1568
▁palasi	-9.15737
▁tapaa	-9.15858
▁kirja	-9.1592
dä	-9.16078
▁minusta	-9.16145
▁sieltä	-9.16185
▁kal	-9.16198
▁Et	-9.16275
miel	-9.16282
▁hyvältä	-9.16289
▁W	-9.163
▁Sam	-9.16351
eseen	-9.16368
▁toivo	-9.16432
▁Hänellä	-9.16445
▁jotakin	-9.16515
▁Hetken	-9.16522
▁vapaa	-9.16596
▁viha	-9.1664
tsu	-9.16663
kkaan	-9.16738
▁mi	-9.16763
tanut	-9.16783
▁Larille	-9.16803
▁sin	-9.1681
▁uuden	-9.16826
▁tekee	-9.1684
▁eli	-9.16928
▁Wangji	-9.17109
▁molemmat	-9.17217
isesta	-9.17231
ika	-9.17282
▁Ni	-9.17292
▁kuule	-9.17312
▁uu	-9.17373
toja	-9.17398
▁ajatella	-9.17464
rk	-9.17538
▁sinulla	-9.17542
kseni	-9.17555
▁saat	-9.17585
▁Le	-9.17616
▁silmien	-9.17769
uu	-9.17778
isto	-9.17864
▁voin	-9.17899
▁jolloin	-9.18194
▁Riitaojan	-9.18338
▁maa	-9.18353
▁mitenkään	-9.18402
laa	-9.18405
▁niska	-9.1845
▁pääsi	-9.1868
tetty	-9.18818
▁nauroi	-9.18854
as	-9.1887
▁sormet	-9.18898
▁kesken	-9.1892
▁----------	-9.18928
miin	-9.19072
ttamaan	-9.191
jat	-9.19341
▁ystävänsä	-9.19487
▁vaiheessa	-9.19621
tkö	-9.19738
▁kättään	-9.19822
▁aikaisemmin	-9.19842
▁kah	-9.19862
▁äkkiä	-9.20127
ssään	-9.20217
▁heille	-9.20298
lais	-9.20313
▁kova	-9.20333
▁vaalea	-9.20339
▁johon	-9.20376
tila	-9.20415
▁pah	-9.20612
▁lyö	-9.20729
▁pidä	-9.20749
▁etten	-9.20769
▁huulet	-9.20793
▁olemaan	-9.20797
▁katsoa	-9.20807
▁aloitti	-9.20869
▁ky	-9.20883
▁uudestaan	-9.20958
▁kädestä	-9.2096
▁olevansa	-9.2099
päivä	-9.21035
▁palaa	-9.21243
▁mahdollista	-9.21293
▁muisto	-9.21315
▁Lu	-9.21366
▁ymmärtää	-9.21427
Jo	-9.2162
isee	-9.21653
tua	-9.21666
▁p	-9.21693
mus	-9.22051
▁L	-9.22098
istaan	-9.22109
▁keksi	-9.22111
▁tapahtui	-9.22134
▁puhui	-9.22169
▁ar	-9.22205
lasi	-9.22213
▁vara	-9.22247
▁jäädä	-9.22344
▁tuttu	-9.22359
▁kevyesti	-9.22376
▁emme	-9.22422
eltä	-9.22497
▁nu	-9.22524
tar	-9.22589
▁huoneen	-9.2259
▁tur	-9.22742
▁vihdoin	-9.22765
tys	-9.22846
▁Re	-9.22855
▁ymmärrä	-9.22882
viin	-9.22888
▁puhe	-9.2293
ih	-9.2302
j	-9.23072
▁tul	-9.23097
▁Keith	-9.23138
▁nimittäin	-9.23223
▁seurasi	-9.23337
▁ojensi	-9.23341
▁mihin	-9.23403
▁olemme	-9.23525
▁tarvi	-9.23566
▁suun	-9.2363
isena	-9.23731
▁saade	-9.23776
▁toisella	-9.2382
▁oliko	-9.23826
ori	-9.23864
▁lii	-9.23879
▁joulu	-9.23917
▁C	-9.23919
▁ruoka	-9.23934
▁Anthony	-9.24028
▁pystyi	-9.24091
uttaa	-9.24172
ossa	-9.24193
▁virnistäen	-9.24308
▁kaikkien	-9.24317
▁ava	-9.24425
▁ensi	-9.24518
▁talo	-9.24532
▁henkäisi	-9.24555
▁haluat	-9.24598
▁Ciryon	-9.24607
▁sellainen	-9.24617
▁peit	-9.24673
▁paperi	-9.24692
▁toimitusjohtaja	-9.24724
yttä	-9.24743
▁varjo	-9.24881
▁kiire	-9.2493
▁mielestä	-9.24999
▁M	-9.25077
▁oppi	-9.25202
lia	-9.25218
yh	-9.25315
rit	-9.25361
▁tarvinnut	-9.2556
▁toivoi	-9.25565
▁äänen	-9.25605
▁w	-9.25637
▁odotti	-9.25648
▁huu	-9.25777
mat	-9.25786
det	-9.2598
▁Lopulta	-9.26012
▁päivää	-9.26012
▁lähde	-9.26016
▁löy	-9.26118
▁tuleva	-9.26192
▁pehmeä	-9.26201
▁sanoin	-9.26273
ppaa	-9.26304
▁poissa	-9.26555
▁Remuksen	-9.26603
▁Retris	-9.26603
▁kotona	-9.26608
toista	-9.26612
iltä	-9.26652
Oletko	-9.26742
▁muun	-9.2675
toi	-9.26795
▁huoneessa	-9.26836
don	-9.26879
tut	-9.26989
▁usein	-9.27118
▁ihmisiä	-9.27237
▁suostu	-9.27266
tettiin	-9.27271
▁sormi	-9.27326
pun	-9.27372
▁turva	-9.27425
htaa	-9.27439
Te	-9.27454
▁aio	-9.27493
▁Oliko	-9.27529
oo	-9.27653
▁luultavasti	-9.27676
▁syytä	-9.27708
go	-9.27801
tia	-9.27862
▁Elendur	-9.27915
x	-9.28013
▁kanta	-9.28203
▁katsoivat	-9.28292
oita	-9.28298
▁laske	-9.28374
▁varten	-9.28406
▁tuota	-9.28472
▁Hanzo	-9.28518
elta	-9.28588
▁luona	-9.286
▁sää	-9.28818
Mikä	-9.28906
Ka	-9.28922
kkää	-9.28962
▁Lance	-9.28993
▁ilta	-9.2901
▁tekisi	-9.2903
▁tosiaan	-9.29114
▁nii	-9.29157
▁viera	-9.29204
har	-9.29213
▁todellakaan	-9.29394
▁matka	-9.29402
▁herät	-9.29428
▁Armin	-9.29561
▁vahva	-9.29606
oista	-9.29636
▁kasvonsa	-9.29662
ttänyt	-9.29673
▁Shinya	-9.2973
▁nukkumaan	-9.29759
▁poliisi	-9.29769
mästä	-9.2989
vel	-9.29902
▁toteaa	-9.29964
▁älä	-9.30002
▁Olin	-9.30025
▁kuuma	-9.30027
▁uskoa	-9.30054
ilee	-9.3006
▁samaan	-9.30061
▁anna	-9.30143
▁Kai	-9.30214
▁myötä	-9.30284
z	-9.30427
▁tehtävä	-9.30573
▁tietenkin	-9.30594
lke	-9.30647
bi	-9.3072
imme	-9.30766
▁pystyyn	-9.30825
▁Heidän	-9.30841
▁puolella	-9.30851
▁määrä	-9.30879
▁miehet	-9.30925
▁hieno	-9.31001
▁ellei	-9.31008
▁kertoo	-9.31026
▁Siinä	-9.31073
▁ainoastaan	-9.31145
▁Kalkaros	-9.31212
Olet	-9.31253
▁hiljais	-9.31277
▁Ju	-9.31286
amaan	-9.3133
▁hiuksia	-9.31457
valta	-9.31487
▁yh	-9.31555
▁miehensä	-9.31741
▁lau	-9.31774
▁huoneeseen	-9.31798
puol	-9.31892
▁huomiota	-9.3195
val	-9.32045
▁tila	-9.32075
▁mua	-9.32078
▁Kyllä	-9.32146
▁taju	-9.32231
▁päästi	-9.32296
To	-9.32345
▁verta	-9.32429
▁mukava	-9.32483
▁sormensa	-9.32529
▁näky	-9.32542
▁muttei	-9.32591
▁isku	-9.32635
▁puolelle	-9.32763
▁Tuo	-9.3281
▁ymmärsi	-9.33024
▁Val	-9.33078
▁iski	-9.33141
▁vaiva	-9.33293
▁antanut	-9.33301
▁kaikesta	-9.33348
▁askeleen	-9.33364
jaa	-9.33373
0	-9.33473
mman	-9.33483
▁Olisi	-9.33529
▁tiedo	-9.33531
lis	-9.33629
▁pöydälle	-9.33652
▁asiasta	-9.33702
▁Zoro	-9.33727
▁Eggsy	-9.33854
ura	-9.33894
▁näyttänyt	-9.33899
▁jaksa	-9.34011
▁pohti	-9.34078
▁vartalo	-9.34115
▁opettaja	-9.34178
▁haluan	-9.3418
tava	-9.34257
▁Sayuri	-9.34324
▁kasvoille	-9.34361
kat	-9.34382
▁hyväksy	-9.34496
▁sinusta	-9.34529
ski	-9.34538
▁kauemmas	-9.34622
▁suo	-9.34645
▁ampu	-9.34752
▁vatsa	-9.34807
▁tiedän	-9.34823
▁peli	-9.34925
alla	-9.34962
mansa	-9.34995
▁otsa	-9.35056
▁alkanut	-9.35172
▁ihmiset	-9.35251
ahti	-9.35263
▁vali	-9.35302
▁vuoro	-9.35339
▁paha	-9.35394
▁muuttu	-9.35421
lö	-9.35466
▁ruo	-9.35476
▁rakkaansa	-9.35566
▁toiseen	-9.35752
▁kysyä	-9.35783
▁vuosi	-9.35863
suu	-9.35942
▁ker	-9.3595
▁ois	-9.36
▁hymyilee	-9.36022
▁päähän	-9.36147
▁Shiro	-9.36176
▁kertonut	-9.36218
▁Ba	-9.36278
▁työn	-9.36281
▁mukanaan	-9.36311
▁varovasti	-9.36318
mies	-9.36339
▁tytön	-9.36579
▁nappasi	-9.36699
▁mieleen	-9.36703
ttyä	-9.36737
▁saattaisi	-9.36772
maton	-9.36856
▁Vai	-9.36863
▁tasa	-9.3693
▁Harrya	-9.36933
▁löysi	-9.36959
ria	-9.36963
ei	-9.36978
ime	-9.36978
▁huvittuneena	-9.37004
chi	-9.37046
haa	-9.37095
▁oleva	-9.3712
▁mahdollisimma	-9.37178
kee	-9.37192
V	-9.37343
▁toiselle	-9.37387
▁vuoden	-9.3746
▁my	-9.37591
▁syystä	-9.37647
▁yrittänyt	-9.37658
kset	-9.37675
▁milloin	-9.37753
iselle	-9.37866
Anteeksi	-9.37963
▁tapauksessa	-9.38027
▁tyhjä	-9.38291
▁lähemmäksi	-9.38291
▁the	-9.38335
▁vähä	-9.38347
änsä	-9.38353
vaan	-9.38375
▁oikeassa	-9.38387
akseen	-9.3839
▁koh	-9.38425
Okei	-9.38465
hin	-9.38469
▁juoksi	-9.38473
tävä	-9.38494
▁pään	-9.38519
▁kättä	-9.38527
Ä	-9.38531
▁hullu	-9.38593
▁hahmo	-9.3873
mien	-9.38794
▁seuraava	-9.38869
vista	-9.38875
itti	-9.38881
neenä	-9.3898
▁laittaa	-9.39135
▁Tonks	-9.39217
▁näe	-9.39243
▁Siitä	-9.3929
▁Ryuu	-9.39301
▁kanssaan	-9.39333
kel	-9.39338
imi	-9.39408
▁tuska	-9.3946
uk	-9.39474
▁pelo	-9.39499
met	-9.39503
ele	-9.39589
▁onnistunut	-9.39604
▁rakas	-9.39625
▁velje	-9.397
tellä	-9.39824
▁koho	-9.39832
▁näiden	-9.39901
▁hymyn	-9.39924
▁pysy	-9.3996
tessa	-9.39996
▁itsestään	-9.40119
▁löytää	-9.40194
▁väärin	-9.40217
▁suoja	-9.40246
▁neljä	-9.40267
▁matala	-9.40543
itse	-9.40571
▁ilmaan	-9.40635
▁itsekseen	-9.40646
▁isänsä	-9.40649
▁osu	-9.40657
▁elä	-9.40669
▁maailma	-9.40845
▁tiedät	-9.40848
▁ovea	-9.40858
▁tien	-9.41158
▁lähelle	-9.41226
▁leikki	-9.41264
▁liikku	-9.41323
▁sil	-9.41324
▁nousee	-9.41474
nnan	-9.41492
tuksi	-9.41583
▁ympärillä	-9.4163
▁nime	-9.4167
▁iho	-9.41671
▁sydän	-9.41784
▁teidän	-9.41811
matto	-9.41814
asti	-9.41902
uksi	-9.41974
On	-9.41986
▁liha	-9.42015
insa	-9.42043
▁Amy	-9.42063
▁asiat	-9.42072
▁päätä	-9.42087
▁kier	-9.42141
▁kaunis	-9.42144
teet	-9.42179
▁ikkuna	-9.42257
ojen	-9.42271
Ehkä	-9.42354
▁kuollut	-9.42364
▁jätti	-9.42372
▁nauru	-9.4261
▁Vilho	-9.42642
▁y	-9.42663
▁nuorempi	-9.42669
▁tieto	-9.42702
tänyt	-9.42771
ttavan	-9.42792
▁Sally	-9.4295
ikollisjärjestön	-9.42996
▁sana	-9.43009
▁moni	-9.43027
▁yhtäkkiä	-9.43201
▁paikka	-9.43251
ttaisi	-9.43265
ivät	-9.43322
▁kyennyt	-9.43341
▁meille	-9.43343
▁selkä	-9.43424
▁Tämän	-9.43426
▁ensimmäisen	-9.43436
ing	-9.43462
▁raskaasti	-9.43621
▁tode	-9.43745
▁paikalla	-9.43836
▁pal	-9.4394
▁samoin	-9.44013
▁mielessä	-9.44102
▁selvää	-9.44143
▁kautta	-9.44176
▁Yagyuu	-9.44185
▁nukku	-9.44186
tamaan	-9.44271
▁päässyt	-9.44327
▁Silloin	-9.44468
▁valu	-9.44524
▁kato	-9.44667
ukseen	-9.44691
▁naura	-9.44737
▁pyyhki	-9.44895
▁kohtaa	-9.44916
▁katsoen	-9.44967
▁astu	-9.4503
huone	-9.45066
ukset	-9.45097
vasta	-9.45133
▁al	-9.45177
▁Hermionen	-9.45183
nee	-9.45183
▁kulta	-9.45189
▁etu	-9.45343
▁selvi	-9.45454
▁helposti	-9.45482
sia	-9.45516
▁joiden	-9.45583
▁pientä	-9.45612
▁taaksepäin	-9.45623
▁Jim	-9.45632
▁jär	-9.45645
▁kadu	-9.45658
▁Tsunehito	-9.45684
▁pyytää	-9.45726
▁missään	-9.4577
▁yhteis	-9.45779
▁välistä	-9.45792
▁miettii	-9.45821
▁tumma	-9.45864
▁hermostu	-9.45971
▁ottanut	-9.46043
▁Sanji	-9.46044
▁rei	-9.46046
rr	-9.4605
▁kesä	-9.46062
▁vieläkin	-9.46169
▁olevaa	-9.46244
▁painaa	-9.46286
▁j	-9.46391
al	-9.46452
▁vaa	-9.46452
▁keittiöön	-9.46477
▁kivi	-9.46491
eli	-9.46596
▁vesi	-9.46621
▁sattui	-9.46739
▁ensimmäinen	-9.46762
▁kiitos	-9.4677
ul	-9.46861
iselta	-9.46875
▁heitti	-9.46926
ntaa	-9.46973
▁kans	-9.47038
alta	-9.47105
ras	-9.47145
▁tä	-9.47261
▁meillä	-9.47264
▁lupaa	-9.47298
▁pystynyt	-9.47304
dis	-9.47456
▁ymmärtä	-9.47535
▁puolesta	-9.47605
kuva	-9.4764
▁keskustelu	-9.47669
▁Pää	-9.47672
▁silmissä	-9.47674
telee	-9.47732
tyä	-9.47751
▁saapu	-9.47756
▁onneksi	-9.47788
llu	-9.47794
ttelee	-9.47805
kaisi	-9.47851
▁uutta	-9.47958
▁nojasi	-9.48331
ahdus	-9.48483
▁välissä	-9.48499
▁etteivät	-9.48587
▁ruokaa	-9.48595
▁katu	-9.48604
ville	-9.48673
▁päästää	-9.48682
▁meitä	-9.48695
▁ymmärtänyt	-9.4887
▁Severuksen	-9.48962
▁poskea	-9.48962
▁painu	-9.48978
▁erään	-9.4907
▁tietenkään	-9.4911
▁kello	-9.49147
▁kulu	-9.49171
▁todellakin	-9.49173
▁in	-9.49204
▁loppuun	-9.49227
illen	-9.49234
▁paino	-9.49293
▁kaula	-9.49307
▁jalka	-9.49346
delle	-9.49376
▁nuorukainen	-9.49407
▁ikävä	-9.49426
▁selitti	-9.4956
utunut	-9.49562
▁harjoit	-9.49566
sit	-9.49699
▁Osa	-9.49732
▁jänni	-9.49759
▁paidan	-9.4983
▁Mo	-9.49841
!?”	-9.49858
▁sohvalle	-9.49906
▁keski	-9.49989
ähti	-9.50163
▁van	-9.50199
sten	-9.50215
D	-9.50291
▁tuho	-9.50311
▁Potter	-9.50339
▁Musta	-9.50377
Nä	-9.5052
▁tap	-9.50524
▁hämmentyneenä	-9.50642
▁tuntenut	-9.50644
▁päättää	-9.50677
▁Urho	-9.50757
▁tuijot	-9.50783
▁So	-9.50795
▁uskonut	-9.50837
▁kumartui	-9.50931
▁piilo	-9.51002
naa	-9.51033
▁kuuluu	-9.51062
J	-9.5111
▁riisu	-9.51122
▁Ar	-9.51172
tuksen	-9.51222
etta	-9.51253
ttämään	-9.51262
▁joista	-9.51313
Tämä	-9.5133
mmat	-9.51375
▁syvä	-9.51435
▁Lo	-9.51439
▁ajatellut	-9.51528
lk	-9.51569
▁edessään	-9.51578
▁pyy	-9.51579
▁muuttui	-9.51625
▁Keimo	-9.51668
▁neuvo	-9.51671
▁yl	-9.51693
▁pilk	-9.51709
hdin	-9.51968
▁juhli	-9.51973
tön	-9.5199
▁Eliakselle	-9.52125
oma	-9.52302
▁Ai	-9.52373
▁kuulosti	-9.52378
▁ihoa	-9.52416
▁eteensä	-9.52438
▁lyhy	-9.52443
▁hymähti	-9.52535
▁onnistu	-9.52542
nneet	-9.5256
kit	-9.52584
▁ihminen	-9.52585
Vai	-9.52609
▁sisällään	-9.52634
▁vieläkään	-9.52654
▁kanna	-9.527
▁pelkää	-9.5271
▁tilaa	-9.52825
▁lapse	-9.52855
▁suur	-9.5287
▁uni	-9.52897
▁rakasta	-9.52979
▁'	-9.53028
▁tulo	-9.53033
▁tärkeä	-9.53076
▁kämmen	-9.53227
ppe	-9.53287
▁tuijottamaan	-9.53365
▁suori	-9.53374
▁uhka	-9.53411
▁nopea	-9.53416
▁ihmisten	-9.5362
uksista	-9.53652
▁kovasti	-9.53722
uri	-9.53736
▁seinä	-9.53802
ba	-9.53867
ttavaa	-9.53883
▁pohja	-9.53954
▁miehiä	-9.53972
▁lähtenyt	-9.54012
▁helpo	-9.54025
▁maan	-9.5403
▁kuiva	-9.54045
▁kädessään	-9.54047
tyksen	-9.54115
taisi	-9.54148
▁aurinko	-9.5429
▁Antti	-9.54329
uta	-9.54359
isella	-9.54387
▁ottamaan	-9.545
▁idea	-9.54505
▁voima	-9.54533
▁une	-9.54537
issaan	-9.54604
Ha	-9.54697
▁vastannut	-9.54861
▁Ri	-9.54909
▁käteen	-9.5491
▁poistu	-9.55006
▁käyttää	-9.55036
▁jaksanut	-9.55075
▁apua	-9.55289
▁puri	-9.55382
▁avaa	-9.55466
▁vettä	-9.55549
▁vittu	-9.55578
ss	-9.55711
▁mafia	-9.55713
▁kysymys	-9.55786
▁istuu	-9.55856
▁toki	-9.55859
▁kaukana	-9.55867
▁pahoi	-9.56017
▁kuvitella	-9.56052
Pi	-9.56061
▁näkö	-9.56104
▁kulma	-9.56154
th	-9.56221
▁korva	-9.56242
misestä	-9.56303
▁Malfoyn	-9.56386
▁kirjanpitäjä	-9.56504
puu	-9.56603
▁katosi	-9.56603
kaise	-9.5661
▁pidempi	-9.56664
▁R	-9.56668
▁suru	-9.56668
▁ettet	-9.56687
▁pääsisi	-9.567
▁kakkosmies	-9.56825
▁rauhassa	-9.56885
▁käteensä	-9.57059
▁ongelma	-9.57156
He	-9.57171
nny	-9.57202
▁kuulunut	-9.57213
▁perhe	-9.5722
▁ehdot	-9.57249
laista	-9.57255
▁toisi	-9.57275
▁suuteli	-9.57298
▁laittoi	-9.57316
▁Tar	-9.57342
▁sula	-9.57429
▁kohosi	-9.57517
▁Saa	-9.57536
isivat	-9.57631
▁jäsen	-9.57632
▁paina	-9.57652
▁kenties	-9.57791
▁ruskeahiuksinen	-9.57793
tessaan	-9.57826
Mu	-9.57871
vis	-9.57909
▁Onneksi	-9.57956
▁tuntuivat	-9.57974
▁B	-9.57997
▁harmaa	-9.5803
▁elämä	-9.58098
ltään	-9.58153
▁osasi	-9.58174
▁tuh	-9.5818
▁tyhj	-9.58196
jän	-9.58198
▁kärsi	-9.58297
ystä	-9.58343
▁kuoli	-9.58358
▁täytyi	-9.58612
lma	-9.58707
vänsä	-9.58739
▁nyökkää	-9.58767
▁sängyn	-9.58767
▁jätkä	-9.58768
lii	-9.58774
▁mielen	-9.58905
▁Vasta	-9.58923
▁väliä	-9.59006
nti	-9.59099
▁matkaa	-9.59122
tie	-9.59256
▁juhla	-9.5926
▁ope	-9.59294
telemaan	-9.59368
aika	-9.59437
mustahiuksinen	-9.59462
▁Sä	-9.5947
▁aihe	-9.59564
▁tasku	-9.59564
tystä	-9.59577
uuden	-9.59596
▁liike	-9.59602
eni	-9.5965
▁olette	-9.59719
N	-9.59729
ce	-9.59797
ani	-9.5982
▁muistaa	-9.59832
▁nähdessään	-9.59921
▁odottanut	-9.5994
▁sota	-9.59968
▁kosketti	-9.60042
▁sir	-9.60068
▁ollaan	-9.60159
▁parasta	-9.60209
▁pitkän	-9.60384
▁c	-9.60405
▁tarkka	-9.60525
Va	-9.6064
▁pyysi	-9.60733
▁häneltä	-9.60747
▁Koska	-9.60903
▁muutenkin	-9.60904
Ku	-9.60913
▁huulensa	-9.60916
Asagi	-9.60936
sko	-9.60976
▁kumma	-9.61067
▁järje	-9.61071
ileva	-9.61127
ole	-9.61139
▁vierelle	-9.6126
▁keh	-9.61312
▁alkoivat	-9.61326
▁nais	-9.61341
▁pukeutunut	-9.61364
▁ikä	-9.61392
▁yrittäe	-9.61411
▁velho	-9.6142
▁avustaja	-9.6142
ren	-9.61428
▁olka	-9.61429
▁eivätkä	-9.61512
▁suku	-9.61515
▁hui	-9.61539
▁tyyny	-9.61594
▁kaikkia	-9.61685
▁hakemaan	-9.61756
▁elämän	-9.61916
▁rauhallis	-9.62012
iska	-9.62049
,”	-9.62133
▁huulilta	-9.62212
▁Minun	-9.62231
▁vakava	-9.62299
▁Jannen	-9.62576
▁lahja	-9.62577
▁kädellään	-9.62646
tai	-9.62661
▁mustatukkainen	-9.62669
hdi	-9.62677
musta	-9.62837
▁Suu	-9.62839
▁helvetin	-9.62896
▁Shadow	-9.62941
▁joo	-9.63001
ttaen	-9.63138
Vi	-9.63174
▁Ihan	-9.63222
illaan	-9.63259
▁tilanne	-9.63344
▁Mikä	-9.6336
Tai	-9.63383
▁taakseen	-9.63386
Minun	-9.63408
ttivat	-9.63426
kuun	-9.63481
valla	-9.63562
▁normaali	-9.63623
▁Yuffie	-9.63626
mal	-9.6379
▁kääntyy	-9.63857
vai	-9.63956
▁kimppuun	-9.6397
▁makuu	-9.63972
▁viimeisen	-9.63979
▁miltä	-9.64143
▁heillä	-9.64182
▁syliinsä	-9.64204
▁mihinkään	-9.64236
▁selittää	-9.64244
▁repi	-9.64246
▁muistutti	-9.64315
▁Huo	-9.64374
▁tajua	-9.64416
▁miettiä	-9.64436
oon	-9.64455
▁puhunut	-9.64459
tely	-9.64537
▁avu	-9.64589
▁joutunut	-9.64601
▁unohtaa	-9.64705
Ma	-9.64714
▁minne	-9.64848
▁juoma	-9.64859
vii	-9.64903
▁savu	-9.64953
▁onko	-9.64971
▁lantio	-9.64979
▁kestä	-9.6498
▁Hymyilee	-9.65013
▁illan	-9.65018
emmin	-9.65096
▁ele	-9.65128
▁Ying	-9.65202
tettava	-9.65207
▁ikkunasta	-9.65212
▁töitä	-9.6526
ch	-9.65304
ästi	-9.65379
▁miesten	-9.65384
▁Even	-9.65423
▁pysyi	-9.65517
▁ajattele	-9.6553
▁vih	-9.65564
▁Sillä	-9.65703
rs	-9.65767
▁tietysti	-9.65777
▁Kukaan	-9.65807
▁makasi	-9.65894
▁Peter	-9.65905
▁huomaamatta	-9.65958
yt	-9.65978
▁sulle	-9.65982
▁pelkäsi	-9.66015
▁tää	-9.66027
▁tarina	-9.66153
Sä	-9.66176
▁lait	-9.66259
▁tappaa	-9.66306
▁Marill	-9.66328
▁Mie	-9.66374
▁Minato	-9.66412
▁tajunnut	-9.66437
▁suudelma	-9.66457
▁käymään	-9.6652
▁tuijottaa	-9.66642
▁osan	-9.6669
▁Luna	-9.66705
Ko	-9.66716
▁tuhahti	-9.66775
tio	-9.66779
▁kietoi	-9.66787
▁nenä	-9.66799
▁terve	-9.66859
▁Scorpius	-9.66942
▁huuto	-9.66976
▁omia	-9.67054
pas	-9.67061
▁kaksikko	-9.67115
▁huomenna	-9.6712
rj	-9.67314
▁puolestaan	-9.67347
▁käski	-9.67354
▁omat	-9.6741
▁viikko	-9.67441
▁Zappiksen	-9.67476
▁estää	-9.67493
▁turha	-9.6754
▁tava	-9.67546
▁jatkuvasti	-9.6792
▁laskeutui	-9.67935
▁meistä	-9.67951
▁ollu	-9.68161
▁Eihän	-9.68202
Oli	-9.68235
▁housu	-9.68311
▁vaate	-9.6836
▁jokaisen	-9.68386
▁lisäsi	-9.68421
▁selkänsä	-9.68437
▁maala	-9.68537
poika	-9.68561
▁Ru	-9.68563
▁sairaala	-9.68582
neita	-9.68625
C	-9.68659
▁menisi	-9.68678
pit	-9.68791
taja	-9.688
▁pako	-9.68949
▁sammu	-9.6895
hy	-9.6896
neensa	-9.69022
Nyt	-9.69027
ttäisi	-9.69053
▁asioista	-9.69063
asi	-9.69086
▁tär	-9.69094
▁pantterimainen	-9.69095
▁kuluttua	-9.69117
▁Ch	-9.69162
▁koira	-9.69166
▁Kuu	-9.69167
▁vaatteet	-9.69265
▁lähi	-9.6929
▁kas	-9.6929
▁mulle	-9.694
▁ryhmä	-9.69408
ettu	-9.6942
▁kulki	-9.69441
▁pahoillani	-9.69458
▁paksu	-9.69463
▁joudu	-9.69586
▁teille	-9.69595
tyi	-9.69674
sty	-9.69674
ineen	-9.69732
▁Be	-9.69732
▁vastata	-9.69772
ota	-9.69781
hka	-9.69811
▁nielaisi	-9.69823
non	-9.69826
▁matkan	-9.69844
▁osoitti	-9.6986
▁ollutkaan	-9.69891
▁näkemään	-9.69902
B	-9.6994
▁tunnus	-9.69962
▁käske	-9.69971
▁tuntu	-9.69976
▁napa	-9.69988
▁odottamaan	-9.70024
▁viisi	-9.70059
▁auton	-9.7014
▁tietä	-9.70163
▁asiassa	-9.70216
▁tumman	-9.70245
▁Bill	-9.7026
▁pehmeästi	-9.70276
▁au	-9.70314
▁sielu	-9.7036
▁Par	-9.70399
▁Niou	-9.70558
hiuksinen	-9.70569
▁jalkansa	-9.70624
isku	-9.70636
▁raivo	-9.7072
▁paljasta	-9.70771
▁merkit	-9.70826
▁ajatukset	-9.7088
▁Lisäksi	-9.7093
▁sydämen	-9.71011
▁lämmin	-9.71014
▁tiski	-9.71017
▁terä	-9.71025
▁menne	-9.71061
▁huutaa	-9.71077
▁perässään	-9.71134
▁iltana	-9.7115
päin	-9.71159
▁omaan	-9.71164
Sa	-9.71228
yttää	-9.71271
idi	-9.71283
▁hävi	-9.71403
bo	-9.71412
▁lopu	-9.71494
mmalta	-9.71529
assa	-9.71534
▁Toinen	-9.71534
▁kovaa	-9.71628
▁suhteen	-9.71644
▁ensimmäistä	-9.71666
sel	-9.7168
▁viikon	-9.71692
▁peili	-9.7171
▁paras	-9.71711
▁aikuis	-9.71848
▁tarkoitus	-9.71852
▁kävelemään	-9.71869
▁omi	-9.71925
Mistä	-9.71928
▁mikäli	-9.71983
▁valtava	-9.72038
mattoman	-9.72056
▁seiso	-9.72065
Tuo	-9.72132
ck	-9.72163
▁kissa	-9.72185
▁täyttä	-9.72193
▁kasvoillaan	-9.72203
▁Dean	-9.72203
ttoman	-9.72217
▁Yksi	-9.72224
▁suosi	-9.72324
▁Hikaru	-9.72383
▁katto	-9.72385
▁kum	-9.72387
▁suunnitelma	-9.72398
▁jalkojen	-9.72414
▁tiuk	-9.72462
Tule	-9.7247
isessa	-9.72512
▁naama	-9.72529
Ihan	-9.72578
▁tehty	-9.72591
▁Sebastian	-9.726
▁rikko	-9.72604
▁korkea	-9.72605
tämään	-9.72643
▁teh	-9.72659
▁nimen	-9.7267
▁saattaa	-9.72747
▁rauhoittu	-9.72789
▁vaatteita	-9.72822
▁vihollis	-9.72831
▁Var	-9.72852
▁helvetti	-9.72888
1	-9.7291
▁teko	-9.72921
▁vaara	-9.73002
mie	-9.73013
▁huulia	-9.73075
▁elämänsä	-9.73121
▁kyy	-9.73131
▁fa	-9.73202
▁polvi	-9.73279
▁Ä	-9.7328
käs	-9.73285
▁onnellinen	-9.73356
▁melko	-9.73358
▁kamala	-9.73367
▁Pian	-9.73374
▁viedä	-9.7341
onsa	-9.7342
mmaksi	-9.73428
zoun	-9.73446
▁luokseen	-9.73446
▁pö	-9.73449
▁paska	-9.73455
ukko	-9.73474
▁sängylle	-9.73544
▁kasvoilla	-9.73577
▁teet	-9.73601
▁mitta	-9.73683
▁teitä	-9.7371
isuus	-9.73747
▁tapahtu	-9.73768
▁Ennen	-9.73769
▁lattiaa	-9.73775
▁olisin	-9.73806
mällä	-9.73855
kohta	-9.73882
▁hö	-9.73883
▁Isä	-9.73897
▁seksi	-9.73941
▁olonsa	-9.73946
▁kenenkään	-9.73959
▁halli	-9.74044
▁huole	-9.74083
▁rentoutu	-9.74101
sse	-9.74172
▁käsiään	-9.74203
wa	-9.74232
▁harvinaisen	-9.74235
▁huolta	-9.7425
▁silmiä	-9.74395
▁Muut	-9.74427
mät	-9.74463
▁seinää	-9.74463
▁Charlie	-9.74496
▁ystäväänsä	-9.74522
▁pitämään	-9.74545
▁kaveri	-9.74548
▁näyttä	-9.74628
olla	-9.74654
nnin	-9.7467
▁huomio	-9.74736
▁Kuinka	-9.74794
ien	-9.74863
laisen	-9.74915
▁kaikista	-9.74922
siin	-9.7493
olle	-9.7495
▁iha	-9.75014
▁pila	-9.75096
▁itku	-9.75102
▁sur	-9.75117
Eikö	-9.7518
Mut	-9.75185
▁tahdo	-9.75233
sesti	-9.75257
▁veren	-9.75288
▁veri	-9.75314
▁lujasti	-9.75353
rvi	-9.75423
▁pudisti	-9.75458
▁huvi	-9.75465
kkaasti	-9.75548
▁katsonut	-9.75575
kirja	-9.75667
utua	-9.75776
pari	-9.7578
ttomasti	-9.75789
▁tiiä	-9.75793
▁puolen	-9.75796
IN	-9.75836
laisia	-9.75922
mpia	-9.75922
ilemaan	-9.75957
pullo	-9.75959
▁Häntä	-9.75981
▁kaatu	-9.75997
▁täyde	-9.76012
▁tunnista	-9.7604
▁mul	-9.76098
ttävää	-9.76225
▁ääreen	-9.76234
▁viileä	-9.76329
▁kyseessä	-9.76338
▁kyynel	-9.76367
▁tuntia	-9.76429
▁poikaa	-9.76434
oitu	-9.76455
▁jatka	-9.76481
▁korvaan	-9.76497
▁pysyä	-9.76516
▁kalu	-9.7654
▁linna	-9.76543
▁istuva	-9.76566
neeseen	-9.76699
mer	-9.76701
▁peru	-9.7674
▁tah	-9.7675
ala	-9.76763
▁kat	-9.76767
mmän	-9.76795
▁tarvitsisi	-9.7683
▁päivi	-9.7684
▁suuren	-9.76855
▁itke	-9.76884
▁kuulee	-9.7691
tuneet	-9.76925
▁lupa	-9.76963
▁Shinkai	-9.77025
▁muuttunut	-9.77094
ihinsa	-9.77118
▁vähemmän	-9.77212
▁tervehti	-9.77247
oksen	-9.77252
▁löytänyt	-9.77422
▁osui	-9.77424
▁Poika	-9.77431
▁jokainen	-9.77436
▁synk	-9.77489
▁näytä	-9.77556
▁lähtien	-9.77575
▁Sano	-9.77597
▁paikoilleen	-9.77606
stettu	-9.77638
▁päät	-9.77673
▁numero	-9.77717
▁sohvalla	-9.77757
▁typerä	-9.77797
telemään	-9.77806
▁Silver	-9.77814
peli	-9.7785
▁vaimo	-9.77928
ol	-9.77932
▁Fisun	-9.77933
kkasi	-9.77965
▁kiusa	-9.77992
▁jalat	-9.78028
▁yrittä	-9.78101
▁huoli	-9.78135
▁Kor	-9.78154
▁kohtalo	-9.78173
▁tyytyväisenä	-9.78202
▁ollenkaan	-9.78237
olo	-9.78317
▁Da	-9.78329
teltu	-9.78453
▁paine	-9.78469
▁nope	-9.78492
oit	-9.78521
▁rai	-9.78595
▁käsky	-9.78595
▁lisä	-9.78596
▁Tällä	-9.78614
htanut	-9.78738
▁Hietanen	-9.78798
▁eihän	-9.78807
▁ihana	-9.789
inä	-9.78999
▁myönsi	-9.79004
▁muoto	-9.7902
▁iske	-9.7904
▁sormen	-9.79049
▁minuun	-9.79076
oli	-9.79114
▁huokaa	-9.79127
▁satu	-9.79181
▁pelkästään	-9.7921
▁nostaa	-9.79216
▁Gackt	-9.79254
lee	-9.79257
▁ota	-9.79264
▁omista	-9.79279
▁sovi	-9.79294
rus	-9.79306
▁ilmoit	-9.79316
▁täältä	-9.79321
▁hyvän	-9.79332
Entä	-9.79334
▁jollain	-9.79343
▁äitinsä	-9.79557
▁mö	-9.79646
▁veny	-9.79682
▁tulossa	-9.79695
ron	-9.79696
▁suudelmaan	-9.79699
▁piteli	-9.79727
lti	-9.79826
▁ilmoitti	-9.79868
▁Jeanin	-9.79869
▁suusta	-9.79923
koon	-9.79956
empaa	-9.79974
▁hätkähti	-9.80004
▁välttämättä	-9.80004
▁kive	-9.80013
▁Louis	-9.80021
▁leik	-9.80039
llistä	-9.80056
illeen	-9.80096
▁poski	-9.80116
▁vasemma	-9.80209
▁isän	-9.80212
▁b	-9.80221
▁murahti	-9.80226
Kai	-9.80228
emme	-9.80233
▁Olet	-9.80238
▁kalpea	-9.80245
▁jättänyt	-9.8026
tellut	-9.80376
▁menossa	-9.80396
▁huomattavasti	-9.80409
▁kumpikin	-9.80411
▁seurassa	-9.80436
▁yötä	-9.80439
ed	-9.80525
Tä	-9.80604
▁sotilas	-9.80623
▁mustat	-9.80689
▁puku	-9.80697
▁nuoremman	-9.80728
ukka	-9.8079
▁sata	-9.80794
▁metalli	-9.80832
▁raja	-9.80853
▁matalasti	-9.80873
▁kirjoit	-9.80917
▁rinta	-9.80978
▁olohuoneeseen	-9.8103
▁hyppäsi	-9.81225
Ke	-9.81252
▁tilanteen	-9.81277
▁nap	-9.81388
▁sanojen	-9.81395
▁Vincent	-9.8143
▁Har	-9.8147
Sinun	-9.81476
▁risti	-9.81488
▁aamulla	-9.81565
▁pahasti	-9.81728
uksella	-9.8177
▁saaneet	-9.81785
▁perä	-9.81824
▁parempaa	-9.81863
▁Hind	-9.81908
▁ylä	-9.81923
▁rakasti	-9.81929
▁äänensä	-9.8197
▁Ishikawa	-9.81971
tellyt	-9.81986
kut	-9.81992
▁mistään	-9.82022
ahtaa	-9.82027
▁poikansa	-9.82027
▁johonkin	-9.82039
▁huuliaan	-9.82039
▁yritä	-9.82048
▁myöntää	-9.82055
▁hiero	-9.82104
▁toisin	-9.82128
las	-9.82129
▁syliin	-9.82182
uudesta	-9.82199
dessä	-9.82251
▁Kirsikka	-9.82254
Totta	-9.82419
illut	-9.82426
▁toisensa	-9.82427
▁kurtisti	-9.82461
▁kunnia	-9.82475
mon	-9.82488
kassa	-9.82519
▁hai	-9.82535
Kuka	-9.8254
▁kääntää	-9.8265
▁kirjan	-9.82659
▁baari	-9.8268
▁käsiinsä	-9.82729
▁ah	-9.82783
▁keskeyt	-9.8279
▁ikkunan	-9.828
▁anta	-9.82805
Ole	-9.82861
jia	-9.82874
▁poikaystävä	-9.82887
▁keino	-9.82959
▁kieltä	-9.83036
▁jonnekin	-9.83071
▁tunnin	-9.83116
▁Sherlockin	-9.83132
▁pelko	-9.83171
▁taisi	-9.83211
▁pidät	-9.83405
▁näh	-9.83417
▁heikko	-9.83417
▁rakastan	-9.83431
▁kaipaa	-9.83529
▁osoitta	-9.8353
▁hehku	-9.83531
riin	-9.83569
rää	-9.83597
neelta	-9.83634
▁huone	-9.83654
yksiä	-9.83685
▁vihainen	-9.83689
htava	-9.83772
ellen	-9.83786
▁alku	-9.8379
▁vaikuttaa	-9.83796
▁piha	-9.83828
ikki	-9.8383
▁keskitty	-9.83851
▁niihin	-9.8389
▁muistel	-9.83924
ava	-9.83936
▁sellaisen	-9.83964
▁kahvia	-9.8398
▁askel	-9.84004
▁laskeutu	-9.8401
▁hengitys	-9.84013
▁tulevan	-9.84072
▁voimakasleukai	-9.84133
tojen	-9.84226
▁puhumaan	-9.84233
▁Ho	-9.84271
▁bo	-9.84326
▁luota	-9.84329
▁selkää	-9.84403
aali	-9.84445
▁hiusten	-9.84466
▁elää	-9.84468
▁nousta	-9.8448
▁as	-9.845
▁hää	-9.84518
jien	-9.84542
Tiedän	-9.84631
▁mukaansa	-9.84712
gin	-9.84714
udesta	-9.8475
▁vanhemman	-9.84767
▁kaupunki	-9.84789
▁jättä	-9.84841
▁kieli	-9.84896
▁hermo	-9.84928
▁ottaen	-9.84944
her	-9.8502
▁tappa	-9.85059
▁siivo	-9.85088
▁ol	-9.85092
▁kuuluva	-9.85114
▁ryhty	-9.85117
▁tekemistä	-9.85149
▁omasta	-9.85213
▁Ti	-9.85401
▁Shepard	-9.85405
▁Eliasta	-9.85437
▁aivo	-9.85636
▁kirje	-9.85637
▁varo	-9.85656
▁löi	-9.857
▁hellä	-9.85715
▁Puna	-9.85741
▁etsimään	-9.85784
▁Aratan	-9.85833
▁kiva	-9.85859
▁Ty	-9.85876
be	-9.85894
▁puoliksi	-9.85898
isty	-9.85911
▁lausu	-9.8593
▁vahingossa	-9.85951
▁vartalon	-9.8598
▁koetti	-9.85991
▁paikoillaan	-9.86048
▁pukeutu	-9.86048
▁tarkemmin	-9.86048
▁nälkä	-9.86048
▁hiuksiaan	-9.86193
▁hauskaa	-9.86258
▁miltei	-9.86263
▁edellis	-9.86263
▁heräsi	-9.86273
päinen	-9.86287
▁vartaloa	-9.86296
Tu	-9.86306
▁pysähty	-9.8632
▁rauha	-9.86351
▁perin	-9.86365
co	-9.86436
neesti	-9.86479
pal	-9.86545
Koska	-9.86595
yksen	-9.86599
▁seinään	-9.86614
▁reaktio	-9.86694
▁kuunteli	-9.86699
lit	-9.86773
▁millään	-9.86814
▁pahaa	-9.86818
▁suurin	-9.86822
paikka	-9.86858
-”	-9.86861
▁Mut	-9.86885
▁seisova	-9.86898
▁meidät	-9.86911
▁poskelle	-9.86911
▁huuta	-9.86942
see	-9.8705
▁koe	-9.8706
▁ajoi	-9.87094
▁Teddy	-9.87127
leh	-9.87149
▁ette	-9.87162
▁yksityis	-9.87177
▁välittänyt	-9.87189
▁heilu	-9.87218
▁näkynyt	-9.87221
▁kerralla	-9.87229
▁tuule	-9.87333
▁nopeammin	-9.87376
▁silitti	-9.87417
isista	-9.8742
sivät	-9.87448
▁palata	-9.87473
▁äidin	-9.87563
▁sisältä	-9.87568
▁kiirehti	-9.87621
▁Onko	-9.87767
▁vastausta	-9.87778
▁hymähtää	-9.87786
▁kieto	-9.87786
siko	-9.87825
fi	-9.87845
▁puh	-9.87874
▁harmi	-9.87913
ld	-9.87952
tävän	-9.87953
▁iloinen	-9.8799
▁Aivan	-9.87994
▁joutu	-9.88029
▁kahta	-9.88047
▁yle	-9.88089
ettiin	-9.88093
▁vaihtoehto	-9.88202
matka	-9.8821
▁kohautti	-9.8822
▁laitta	-9.88226
neiden	-9.88318
▁pystyisi	-9.8834
▁Itse	-9.88373
▁pelkkä	-9.88429
▁lähinnä	-9.88441
▁vyö	-9.88448
naan	-9.88458
luu	-9.88472
▁vihreä	-9.88531
▁sydämensä	-9.88538
▁avulla	-9.88643
▁Tylypahka	-9.88659
ah	-9.88698
isuutta	-9.8877
▁aikoi	-9.88771
▁rip	-9.88833
▁katsahti	-9.8888
▁soittaa	-9.8888
▁syv	-9.88881
kkee	-9.88916
▁ilmaa	-9.88949
koo	-9.88964
▁asteli	-9.88964
▁ruu	-9.88969
▁Älä	-9.89017
▁tunteita	-9.89034
▁epäröi	-9.89101
▁Jesse	-9.89106
▁kaksikon	-9.89132
▁kasa	-9.89138
▁ba	-9.8917
▁lääkäri	-9.89245
teräväpiirteinen	-9.89323
▁Rookie	-9.89323
▁tavallista	-9.89342
▁myöten	-9.89367
Sitä	-9.89459
▁you	-9.89551
▁ympärillään	-9.89552
▁miekka	-9.89598
uli	-9.89603
▁hel	-9.8963
▁pelasta	-9.89631
Etkö	-9.89634
▁Reita	-9.89656
täessä	-9.89657
Hide	-9.89692
▁päältä	-9.89762
▁ovesta	-9.89769
▁Koko	-9.89832
▁tuntea	-9.89839
▁päättänyt	-9.89875
▁Lan	-9.89909
ytti	-9.89944
▁kerä	-9.89976
▁tyytyväinen	-9.89991
▁tiukemmin	-9.89999
kai	-9.90009
▁Nainen	-9.90012
▁vihaa	-9.90045
▁elävä	-9.9006
▁uskaltanut	-9.90114
▁menet	-9.90148
▁nauraa	-9.90171
▁tykkää	-9.90239
ppo	-9.9037
▁suudelman	-9.90388
▁Määtän	-9.90439
▁henkivartija	-9.90439
▁kaikille	-9.90442
▁saan	-9.90461
▁kisko	-9.90467
▁yakuzan	-9.90558
▁lasta	-9.90584
▁vaalean	-9.90682
▁kipu	-9.90796
▁Naruto	-9.90889
▁kohdalla	-9.9089
tetaan	-9.90916
▁pojat	-9.90952
▁miehi	-9.9102
eks	-9.91025
▁naista	-9.91051
uksessa	-9.91054
▁terävä	-9.91064
ksesta	-9.91084
▁mumisi	-9.91116
▁nykyään	-9.91147
▁faija	-9.91343
▁tänä	-9.91371
▁vuosia	-9.91393
▁töihin	-9.91441
▁lähesty	-9.91451
▁nosta	-9.91473
▁sorme	-9.91488
▁Toivo	-9.91492
itin	-9.91574
um	-9.91578
inta	-9.91581
▁muualle	-9.91586
▁asunto	-9.91589
▁varovaisesti	-9.91605
ff	-9.91622
▁liu	-9.91628
▁voisin	-9.91651
▁lasin	-9.91688
▁varoi	-9.91698
▁leveä	-9.91774
▁karjaisi	-9.91797
▁tavoin	-9.91798
▁Mary	-9.91849
▁siisti	-9.91981
▁varas	-9.91983
▁nukahta	-9.92026
▁erityisesti	-9.92029
▁pelkä	-9.92035
▁ohitse	-9.92056
▁osta	-9.92101
Sano	-9.92118
Mi	-9.92121
▁kuiskaa	-9.92132
▁keittiön	-9.92136
▁ääntä	-9.92158
▁kauemmaksi	-9.9226
▁jälki	-9.92297
▁hartia	-9.92299
▁tietoa	-9.92317
▁henki	-9.92332
▁virhe	-9.92332
▁ihmisen	-9.92356
▁työntää	-9.92384
▁viimeinen	-9.92396
▁painautu	-9.92434
▁ystäviä	-9.9247
▁meno	-9.92473
▁silmistä	-9.92499
▁tähti	-9.9251
▁pinna	-9.92575
▁Matt	-9.92576
▁penk	-9.92584
▁viisa	-9.92623
▁Iidan	-9.92653
reita	-9.92709
▁vähitellen	-9.92709
▁erittäin	-9.9271
▁haltia	-9.92738
▁jutu	-9.92745
päivän	-9.92768
▁unta	-9.92783
▁Infinite	-9.92939
▁mafiapomo	-9.92939
▁haava	-9.92947
matonta	-9.92947
▁polve	-9.93016
▁Muutama	-9.93019
▁homo	-9.93039
keen	-9.93043
mätön	-9.93049
▁kiihty	-9.93078
▁ulkona	-9.93113
Ta	-9.9319
▁laiha	-9.93234
nnyt	-9.93301
▁murha	-9.93314
▁Tosin	-9.93314
räh	-9.93326
piir	-9.93327
▁näkyi	-9.9333
▁liikemies	-9.93414
▁keskeytti	-9.93471
▁ensimmäisenä	-9.93474
▁piru	-9.93478
stelee	-9.93502
▁uskalta	-9.93504
▁Kimi	-9.93562
▁Die	-9.93572
▁käyttäyty	-9.93632
▁katoa	-9.93641
▁Molly	-9.9365
▁sanomaan	-9.93679
▁päälleen	-9.93712
▁seuraavaksi	-9.93722
▁entinen	-9.93736
▁Alfa	-9.93868
▁rauhallisesti	-9.93896
▁pure	-9.93933
▁Kalkaroksen	-9.93943
son	-9.94028
Z	-9.94069
▁siirsi	-9.941
hen	-9.94138
▁tavara	-9.94157
▁kymmenen	-9.94208
reuna	-9.94228
▁Kau	-9.94242
laiset	-9.94262
▁Bucky	-9.9433
▁kysyvästi	-9.9433
▁tilanteessa	-9.94407
▁huolehti	-9.94426
▁hissi	-9.94473
▁reagoi	-9.94563
▁tarkoitti	-9.94563
▁tyhmä	-9.94565
▁Katse	-9.94568
▁marssi	-9.94573
▁Käsi	-9.94577
▁suukon	-9.94601
▁myy	-9.94603
▁Pe	-9.94607
▁aloittaa	-9.94685
▁pyörä	-9.94686
dellä	-9.94702
▁sydäm	-9.9477
▁tarkoita	-9.94798
▁tapahtuma	-9.94827
▁hajo	-9.94856
▁toive	-9.94995
▁haju	-9.95001
▁Dudley	-9.95032
▁alemmas	-9.95035
▁and	-9.9511
▁eilen	-9.95122
La	-9.95139
om	-9.95168
▁Jack	-9.95205
▁helppo	-9.95225
▁kasvojen	-9.95233
▁väki	-9.95234
▁Crowley	-9.95268
▁näitä	-9.95273
▁muille	-9.95306
▁sanaa	-9.95344
▁kuulostaa	-9.95385
▁suihku	-9.9541
▁Kuka	-9.95477
▁toisaalta	-9.95503
▁Lahtinen	-9.95504
▁aisti	-9.9563
▁kirkkaa	-9.95667
▁tavallaan	-9.95679
▁punastu	-9.95686
▁tuke	-9.95735
▁Mycroft	-9.9574
▁kie	-9.95763
▁näy	-9.95772
▁Hä	-9.95818
inaa	-9.9583
▁omalla	-9.95842
▁El	-9.95859
tii	-9.95893
▁hätä	-9.95912
▁laula	-9.95971
▁suju	-9.96017
▁Eren	-9.96019
▁näyttivät	-9.96025
▁valmiiksi	-9.9607
▁viesti	-9.96122
▁paremma	-9.96137
▁Miehen	-9.96223
▁huoneesta	-9.96246
▁Fu	-9.96294
▁kunhan	-9.96323
▁joutuisi	-9.9634
▁sanoille	-9.9634
▁im	-9.96369
Lu	-9.96375
▁soluttautuja	-9.96489
yys	-9.96497
▁''	-9.96561
▁ilmestyi	-9.96598
▁auringon	-9.96659
▁zappis	-9.96691
▁tarttuu	-9.96692
▁eniten	-9.96705
▁maassa	-9.96766
▁inho	-9.96816
ttäen	-9.96823
▁muutakin	-9.96826
▁ark	-9.96838
▁Kuro	-9.96868
▁herää	-9.96879
▁elämää	-9.96898
▁täysi	-9.97006
▁veljensä	-9.9702
▁suustaan	-9.97034
▁lempeä	-9.97049
▁be	-9.97094
▁peiton	-9.97131
▁kuvitteli	-9.9717
eistä	-9.97225
▁tahto	-9.97272
ksesi	-9.97293
▁eikö	-9.97377
▁käsivarsi	-9.97411
uus	-9.97417
▁kauhu	-9.97429
herra	-9.97486
pussi	-9.9752
▁veden	-9.9752
vah	-9.97531
▁tulen	-9.97586
isenä	-9.97628
▁vetäyty	-9.9768
▁homma	-9.97733
▁punapää	-9.97758
▁opetta	-9.97799
▁ollessa	-9.97814
*	-9.97861
▁luovu	-9.97879
valo	-9.97904
▁luuli	-9.97984
▁toimisto	-9.97988
▁kasvoilleen	-9.9803
▁istuutui	-9.98059
mpää	-9.98099
mana	-9.98134
▁äsken	-9.98135
▁entisestään	-9.98142
▁tal	-9.98149
''	-9.98152
▁toisessa	-9.98175
▁kaiva	-9.98241
Kun	-9.98263
▁lopettaa	-9.98334
Missä	-9.9834
kor	-9.98358
▁hiljaisuuden	-9.98391
▁pöytään	-9.98396
▁innostu	-9.9841
▁parin	-9.98419
▁Samassa	-9.98454
rista	-9.98484
▁nimeä	-9.98571
▁inno	-9.98575
▁Fred	-9.98623
▁suostunut	-9.98638
▁sut	-9.98724
▁harha	-9.98758
▁vakavana	-9.98825
▁mielestään	-9.98856
▁Miyuki	-9.98865
▁Pieni	-9.98867
liikke	-9.98991
▁suhtee	-9.99
▁huolestu	-9.99017
▁nukkua	-9.99056
▁vetäytyi	-9.99101
▁kiltti	-9.99112
▁kuvittele	-9.99122
▁lupasi	-9.9913
▁hiuksiin	-9.99148
▁pidemmän	-9.9915
▁tuuli	-9.99157
▁oudo	-9.99218
▁Koskelan	-9.99219
mistaan	-9.99224
▁käsien	-9.99249
▁kaivoi	-9.99277
evä	-9.99349
▁ennenkin	-9.99403
▁mutisee	-9.99414
pala	-9.99419
▁Közin	-9.99419
vit	-9.99438
teita	-9.99442
▁mukavaa	-9.99499
▁nuorukaisen	-9.99527
Minulla	-9.99527
▁Eikö	-9.9953
▁sali	-9.9957
▁paikan	-9.99579
▁professori	-9.996
▁silit	-9.99635
▁sauva	-9.99653
▁itki	-9.99672
▁viimeiset	-9.99696
▁juokse	-9.99706
▁lähte	-9.9975
▁kertomaan	-9.99794
▁lyhempi	-9.99847
▁muistanut	-9.99858
▁Olihan	-9.99868
▁Äiti	-9.99899
▁kuunnella	-9.99901
▁heiko	-9.99956
utuu	-10.0001
mpaan	-10.0007
Su	-10.0016
män	-10.0019
neitä	-10.002
Nii	-10.0025
▁hieroi	-10.0028
tor	-10.0028
▁liiku	-10.003
laisten	-10.0031
kista	-10.0033
▁keskelle	-10.0034
▁Laria	-10.0036
▁Juuri	-10.0038
▁kalpe	-10.004
▁Vain	-10.0042
▁Billy	-10.0049
▁Yuu	-10.005
▁lempeästi	-10.0052
▁tilannetta	-10.0052
▁sittenkin	-10.0057
▁Desmond	-10.0059
▁Granger	-10.0059
▁keuhko	-10.0059
▁todennäköisesti	-10.006
skaa	-10.0065
▁Risto	-10.0067
▁varsinkaan	-10.0072
veli	-10.0074
Ki	-10.0075
emma	-10.0079
▁haave	-10.0083
▁hyödy	-10.0085
▁Yuuki	-10.0085
annut	-10.0087
▁aikonut	-10.0094
▁suora	-10.0095
▁sohvan	-10.0101
uksensa	-10.0103
hon	-10.0103
▁nolo	-10.0103
ud	-10.0104
▁ajattelin	-10.0109
miä	-10.011
▁erikois	-10.0111
▁kieltäyty	-10.0111
▁eläin	-10.0112
▁Kuin	-10.0114
tonta	-10.0131
▁ääressä	-10.0134
▁okei	-10.0135
▁huultaan	-10.0136
▁silmää	-10.0138
▁sävy	-10.014
▁silmin	-10.0144
televa	-10.0146
▁aikoina	-10.0147
isuuden	-10.0155
paita	-10.016
▁katsellen	-10.0162
▁selän	-10.0165
▁Yh	-10.0174
▁uskoi	-10.0178
▁erää	-10.0181
▁lattialla	-10.0183
kaista	-10.0184
▁Siriuksen	-10.0184
▁miehelle	-10.019
▁liitty	-10.0205
▁hämmästy	-10.0208
▁Eli	-10.021
oilla	-10.0217
▁suuhunsa	-10.022
osa	-10.0226
isit	-10.023
▁tunti	-10.0231
▁sija	-10.0233
▁sähkö	-10.0235
▁lukea	-10.024
▁ajat	-10.0242
▁oike	-10.0243
▁maailmassa	-10.0245
▁piste	-10.0258
▁eräs	-10.0259
▁makuuhuoneeseen	-10.026
▁haittaa	-10.0266
▁talon	-10.0268
vään	-10.027
▁parhaa	-10.0271
▁tottu	-10.0286
▁illalla	-10.0288
▁ilmesty	-10.0288
F	-10.0288
▁olkapää	-10.0291
▁just	-10.0294
kiä	-10.0296
▁paikkaan	-10.0305
▁saakka	-10.0309
▁jäljellä	-10.0311
▁kysymykseen	-10.0318
▁tapahtuu	-10.032
nnasta	-10.0324
▁käytävä	-10.0334
▁Espio	-10.0336
▁näköisenä	-10.0337
illään	-10.0338
▁jästi	-10.0339
▁tunnu	-10.0341
▁alue	-10.0341
▁lämpi	-10.0346
▁vihaisena	-10.0346
ikan	-10.0351
▁ohja	-10.0352
▁soitta	-10.0358
▁hirvittävä	-10.0362
▁virne	-10.0364
▁asema	-10.0366
▁katsetta	-10.0368
▁verho	-10.0378
▁täh	-10.0382
▁vuosien	-10.0384
määrä	-10.0384
uudessa	-10.0398
▁kiinnostu	-10.0399
▁lautas	-10.0409
joita	-10.041
▁rakastaja	-10.041
▁sänky	-10.041
▁vastuu	-10.0413
lassa	-10.0414
▁valmiina	-10.0421
gen	-10.0421
▁halusin	-10.0423
▁maata	-10.0427
▁viimeksi	-10.043
▁Minulla	-10.0439
▁laiva	-10.0441
▁nahka	-10.0443
G	-10.0444
tuneena	-10.0453
▁epätoivo	-10.0455
▁kumartu	-10.0461
▁hankala	-10.0465
▁meijän	-10.0465
▁katke	-10.0465
▁olemassa	-10.0466
köhän	-10.0467
mmalla	-10.0473
▁katsettaan	-10.0475
▁synty	-10.0475
▁tr	-10.0475
▁joukkue	-10.0479
▁puhelu	-10.0482
tymään	-10.0488
▁minuuttia	-10.0491
▁rinnalla	-10.0492
▁hur	-10.0492
▁otta	-10.0494
▁joissa	-10.0495
▁kuningas	-10.0503
▁paljoa	-10.0507
ilija	-10.0508
▁mustatukka	-10.0508
▁sopiva	-10.0509
▁nuore	-10.0509
▁toimia	-10.0511
▁kauaa	-10.0511
veri	-10.0511
▁kirjasto	-10.0517
yyttä	-10.0517
ok	-10.052
▁Sethin	-10.053
▁tyr	-10.0536
teeseen	-10.0542
▁vilkaisten	-10.0542
▁kumpikaan	-10.0543
▁eksy	-10.0544
▁lohdutta	-10.0551
▁itseensä	-10.0558
▁taida	-10.0564
▁Aika	-10.0567
▁viereensä	-10.0569
▁pyöräytti	-10.0569
▁syödä	-10.0573
▁suurta	-10.0573
▁myöskään	-10.0581
▁luottaa	-10.0584
▁teen	-10.0586
▁vastaukseksi	-10.0595
▁painautui	-10.0598
▁Silti	-10.0601
kata	-10.0607
▁noi	-10.0617
▁Sy	-10.0618
hm	-10.062
▁Minerva	-10.0621
▁taikasauva	-10.0621
▁toisesta	-10.0628
▁lailla	-10.0632
▁järjestä	-10.0635
▁kodi	-10.0639
ssani	-10.0642
▁sanan	-10.0643
lista	-10.0648
▁puristaa	-10.0649
▁mustahiuksinen	-10.0649
▁Siellä	-10.0655
▁nauruun	-10.0661
▁asiaan	-10.067
use	-10.0671
▁kuole	-10.0674
▁huokaisee	-10.0675
▁ihmeissään	-10.0675
▁toisiinsa	-10.0675
tteleva	-10.0676
▁oppinut	-10.0676
▁tottunut	-10.0687
▁hiha	-10.0696
▁välitä	-10.0698
▁Joskus	-10.07
▁lähtivät	-10.0701
▁kenellekään	-10.0703
▁erotta	-10.0703
▁näkisi	-10.0705
▁turhan	-10.0708
maailma	-10.0708
▁toivoa	-10.0715
▁viettää	-10.0717
Kuule	-10.0717
oiden	-10.0722
▁eroon	-10.0728
▁sanomatta	-10.0729
▁naurahtaa	-10.0729
▁ruumiin	-10.073
▁kuolemaa	-10.0731
▁hengitti	-10.0731
mina	-10.0732
▁kasvojaan	-10.0733
▁ikuis	-10.0733
▁Joku	-10.074
▁kop	-10.0743
▁useamman	-10.0743
▁väh	-10.0743
▁kuuntele	-10.0745
▁äänet	-10.0752
▁kyyneleet	-10.0754
▁vauva	-10.0758
llisia	-10.0765
▁nyrkkiin	-10.0765
ttuna	-10.0769
▁oikeesti	-10.0769
▁yllättävän	-10.0782
▁Näin	-10.0784
orm	-10.0789
▁ryhtyi	-10.079
▁asetta	-10.0793
▁kuulo	-10.0804
▁saapui	-10.0806
▁riemu	-10.0807
oihin	-10.0807
empää	-10.0814
▁pime	-10.0822
▁kädessä	-10.0825
tettua	-10.0826
tuaan	-10.0827
▁kome	-10.0829
▁neli	-10.0831
▁Aziraphale	-10.0834
▁sekaisin	-10.0835
▁Toki	-10.0836
▁sänkyyn	-10.0838
▁teetä	-10.0839
usten	-10.0842
▁unohtanut	-10.0844
ttuja	-10.0846
▁tarkoittaa	-10.0848
▁Siksi	-10.085
▁ajatuksensa	-10.0854
▁viestin	-10.0856
▁Jokin	-10.0857
▁osittain	-10.086
▁levisi	-10.0861
kalla	-10.0866
▁mahdollise	-10.087
▁laati	-10.0871
▁kuoleman	-10.0872
▁terävästi	-10.0881
▁kappale	-10.0881
▁valmistautu	-10.0883
▁portai	-10.0885
▁hankki	-10.0889
▁jättäen	-10.0889
▁mustasilmäinen	-10.0892
▁kylä	-10.0894
▁rantee	-10.0894
▁selkeästi	-10.0897
▁puhelimen	-10.0902
▁toistensa	-10.0903
▁Katso	-10.091
▁erityisen	-10.0911
▁heittää	-10.0912
▁avautu	-10.0918
▁Johnin	-10.0922
ehdo	-10.0925
▁töissä	-10.0929
kot	-10.0933
▁keskus	-10.0944
▁rakastaa	-10.0946
▁ihastu	-10.0951
▁ees	-10.0953
▁käsissään	-10.0957
▁liikkui	-10.0966
▁Toisaalta	-10.0969
▁Vaalea	-10.0969
▁katseellaan	-10.0969
▁tuosta	-10.0969
▁makaamaan	-10.098
▁mielensä	-10.0984
▁Enjolras	-10.0996
▁Fleur	-10.0996
▁Tale	-10.0996
▁minkäänlaista	-10.0996
▁Baekhyunin	-10.0998
▁ali	-10.0999
▁voisivat	-10.1003
▁tosissaan	-10.1004
Kuinka	-10.1007
▁antaisi	-10.1007
▁Proton	-10.1009
▁vallan	-10.1013
▁joko	-10.1013
▁voineet	-10.1015
▁Kal	-10.1022
vuotias	-10.1023
▁Steven	-10.1024
▁sulkee	-10.1026
sali	-10.1031
▁kaulaa	-10.1032
▁vaikuttanut	-10.1032
▁luku	-10.1034
▁pöytä	-10.1041
▁loput	-10.1047
▁Wuxian	-10.1051
▁väsynee	-10.1054
▁vastaus	-10.1057
Mennään	-10.1062
kkeen	-10.1066
▁Hyvä	-10.1068
▁hiki	-10.1071
▁saadakseen	-10.1072
▁jännitty	-10.1076
▁kansa	-10.109
▁muutamia	-10.1092
▁yönä	-10.1092
▁kunnon	-10.1094
▁elossa	-10.1096
kien	-10.1096
▁kone	-10.1096
▁Sinun	-10.1101
▁onnellise	-10.1102
▁kam	-10.1105
▁taika	-10.1106
▁puolusta	-10.1108
▁sairas	-10.1109
▁tekemä	-10.1117
▁seuraavan	-10.1121
rtin	-10.1127
▁Ver	-10.1127
▁saamaan	-10.1127
▁Samalla	-10.1131
▁Nathan	-10.1133
▁kuisk	-10.1141
▁sylissään	-10.1142
Anna	-10.1143
▁näyt	-10.1144
▁lehti	-10.1146
isyys	-10.1148
▁Tie	-10.115
mpana	-10.1151
▁muodo	-10.1155
▁Kaksi	-10.1162
▁monet	-10.1164
▁entisen	-10.1164
▁etsivä	-10.1164
▁takki	-10.1168
▁sattuu	-10.1175
pö	-10.1178
▁Hänestä	-10.1185
puku	-10.119
▁Ilma	-10.1197
▁kasvoi	-10.1204
▁hyp	-10.1215
▁nyky	-10.1216
▁heilautti	-10.1217
▁sängyssä	-10.1217
▁Stiles	-10.1217
▁Tyttö	-10.1217
talo	-10.1217
▁tor	-10.1233
▁vetä	-10.1235
▁takin	-10.1243
▁kaar	-10.1253
▁Yuuto	-10.1254
▁olihan	-10.1255
▁oikean	-10.126
▁Kokki	-10.1261
▁lattia	-10.1264
▁sal	-10.1273
▁pakeni	-10.1274
▁hiljaista	-10.1287
Kaikki	-10.1294
▁Weasley	-10.1301
▁nojatuoli	-10.1301
▁Rauha	-10.1301
▁pikaisesti	-10.1303
▁or	-10.1313
suo	-10.1313
nainen	-10.1317
▁mieleensä	-10.1317
▁päättä	-10.1319
lut	-10.1322
▁tulivat	-10.1322
ttaisiin	-10.1325
▁kuullessaan	-10.1329
▁kuulemma	-10.1329
?!”	-10.1331
▁rakastaan	-10.1332
▁väsynyt	-10.1334
▁ylle	-10.1335
▁pullo	-10.1339
▁sanaakaan	-10.1339
otto	-10.134
▁olevat	-10.134
▁satutta	-10.1344
▁is	-10.1347
tinen	-10.1348
▁nuoren	-10.135
▁Ginnyn	-10.1355
▁kadonnut	-10.1357
▁olkiaan	-10.1357
▁kuvitellut	-10.1357
▁kuolema	-10.1362
▁kummi	-10.1367
että	-10.1368
▁kaupungin	-10.137
▁vahti	-10.1371
▁pystyssä	-10.1383
mainen	-10.1385
▁mieluummin	-10.1385
Haluatko	-10.1387
▁taso	-10.1399
▁fi	-10.1407
▁turhaan	-10.1413
▁Elrond	-10.1414
▁paikalta	-10.1414
▁poik	-10.1424
▁huulilleen	-10.1429
isestä	-10.1429
Pidä	-10.1433
▁Joten	-10.1434
ukselle	-10.1437
▁vessa	-10.1438
huoneessa	-10.1448
▁puuttu	-10.145
▁Mistä	-10.145
vir	-10.1453
▁pisti	-10.1454
▁hymyyn	-10.1458
▁poskille	-10.1458
Ju	-10.1458
Meidän	-10.1458
▁pyytä	-10.1463
asia	-10.1467
▁karkasi	-10.1472
▁kirkas	-10.1474
▁kanssani	-10.1475
▁hiipi	-10.1477
▁kuulosta	-10.1479
▁Muumipeikko	-10.1479
▁puolelta	-10.1491
▁etsiä	-10.1494
piiri	-10.1495
▁villi	-10.1495
▁roikku	-10.1498
▁rinnalle	-10.15
▁saavu	-10.1503
▁haki	-10.1509
▁päätellen	-10.1511
▁lasten	-10.1517
▁ilmeen	-10.152
▁valkoise	-10.152
▁vaikeaa	-10.1522
▁rahaa	-10.1522
!?	-10.1522
▁vanno	-10.1524
▁olkapäälle	-10.1526
ttaessa	-10.1526
▁muusta	-10.1528
▁järkevä	-10.1529
▁rouva	-10.1529
▁hiljaisuus	-10.1529
▁saattanut	-10.1533
▁vastusta	-10.1538
▁perheen	-10.1538
jensa	-10.1541
▁tuki	-10.1541
▁kehu	-10.1549
▁syömään	-10.1551
milla	-10.1553
lasta	-10.1554
▁meri	-10.1554
▁sulkeutu	-10.1555
▁jatku	-10.1558
nruskeahiuksinen	-10.1558
rry	-10.1559
▁kokenut	-10.1568
kaisu	-10.1568
▁kukka	-10.1574
▁odottava	-10.1576
▁laskee	-10.1578
▁Eivät	-10.158
▁merkki	-10.1585
▁kauhea	-10.1587
kannut	-10.1591
einä	-10.1593
kal	-10.1597
▁pintaa	-10.1601
▁pelkkää	-10.1604
▁Azusan	-10.161
▁naimisiin	-10.1615
▁ongelmia	-10.1615
▁Connie	-10.1615
▁välittämättä	-10.1617
▁vieressään	-10.1619
ttavat	-10.164
▁muuttaa	-10.1641
▁riittävän	-10.1644
▁huomion	-10.1645
▁käperty	-10.1646
▁Tule	-10.165
▁tarvitsee	-10.1651
▁keskenään	-10.1655
▁keit	-10.166
silmäisen	-10.1667
▁uusia	-10.167
▁Furuya	-10.1673
▁unohd	-10.1673
▁kestänyt	-10.1683
▁kuolla	-10.1687
▁kolmen	-10.169
▁Kar	-10.169
▁suuhun	-10.1691
del	-10.1692
▁sohva	-10.1693
▁Että	-10.1695
▁Ali	-10.1696
▁kohden	-10.1696
▁kestää	-10.1697
▁Mar	-10.1702
▁hetkessä	-10.1702
▁kanssasi	-10.1714
▁auttanut	-10.1717
mää	-10.1718
▁näköinen	-10.172
▁Pel	-10.172
▁teini	-10.1721
▁selittä	-10.1724
▁alkoholi	-10.1732
▁kohteliaasti	-10.1732
▁pyrki	-10.1732
▁tie	-10.1737
▁avata	-10.1739
▁sodan	-10.174
▁kiersi	-10.1743
▁selvä	-10.1744
▁nurk	-10.1749
▁syvälle	-10.1757
yksi	-10.1758
▁ylpeä	-10.1761
▁hetkeen	-10.1761
▁tarvitsi	-10.1762
▁häpeä	-10.1762
▁surkea	-10.1764
▁ui	-10.1769
▁Joka	-10.1776
▁välittä	-10.1779
▁iltaa	-10.1785
ttiä	-10.1789
▁maksa	-10.179
▁vaistomaisesti	-10.1791
emmi	-10.1793
▁palo	-10.1797
toon	-10.1799
uksiin	-10.1801
▁tietäisi	-10.1802
▁onkin	-10.1805
ikku	-10.1815
avan	-10.1816
ikä	-10.1818
▁lause	-10.1821
ide	-10.1826
▁vuoteen	-10.1829
skeli	-10.183
▁ravisti	-10.1832
▁hätää	-10.1832
▁aloit	-10.1837
▁pelottava	-10.1841
▁voimme	-10.1842
▁kevye	-10.1846
▁kysymyksen	-10.1847
▁Edward	-10.185
▁Jongdae	-10.185
▁Ilkka	-10.185
kseksi	-10.1851
▁kauas	-10.1856
▁aluksi	-10.1856
▁istua	-10.186
▁Jamesin	-10.1861
▁pyyhkäisi	-10.1864
▁uh	-10.1865
▁Niinpä	-10.1867
kein	-10.1869
▁väistä	-10.1871
▁käyn	-10.1872
iseva	-10.1873
▁lapsia	-10.1876
▁vaivaa	-10.1876
▁joukko	-10.1879
▁Omega	-10.188
▁puhuu	-10.1887
▁Lily	-10.1887
tensä	-10.1888
▁rintaa	-10.1888
▁oi	-10.1897
▁keksiä	-10.1898
▁korvan	-10.1899
▁väärä	-10.1905
huoneen	-10.1906
▁hänessä	-10.1906
▁matkalla	-10.1907
▁hiljainen	-10.191
▁sinuun	-10.191
▁Mama	-10.1912
uutta	-10.1912
▁säily	-10.1914
▁Viimein	-10.1918
missa	-10.1921
▁haluu	-10.1926
▁perus	-10.1926
▁pro	-10.1928
ston	-10.193
▁tausta	-10.1932
tuivat	-10.1932
imen	-10.1944
▁valui	-10.1948
▁kutsui	-10.1953
▁pääs	-10.1954
▁päässään	-10.1954
▁kiinnostunut	-10.1955
▁huuli	-10.1968
Olisi	-10.1969
▁mennessä	-10.197
teiden	-10.1972
▁ystävällisesti	-10.1976
▁tulemaan	-10.198
EN	-10.198
▁ehdotti	-10.1981
▁aseen	-10.1984
▁viini	-10.1985
—	-10.1992
▁suutaan	-10.1995
▁up	-10.1995
kerta	-10.1996
▁kulunut	-10.1997
▁vaihtoi	-10.1999
▁ystävi	-10.2002
mpään	-10.2017
tien	-10.202
▁värähtä	-10.202
▁Keithin	-10.2022
▁tuntemaan	-10.2022
▁ryntäsi	-10.203
▁nuku	-10.203
▁Aamu	-10.203
▁puol	-10.2035
▁syyllis	-10.2039
▁tukea	-10.2047
▁sormien	-10.2049
▁är	-10.2052
▁varsinkin	-10.2055
▁luvan	-10.2058
mutta	-10.2061
▁asettui	-10.2064
kari	-10.2069
▁Au	-10.2069
▁ton	-10.207
▁paikkaa	-10.2072
loissa	-10.2075
▁pelaa	-10.208
tteko	-10.2081
hduksen	-10.2084
neeksi	-10.2084
▁lopuksi	-10.209
▁televisio	-10.2091
▁ilkeä	-10.2091
▁todista	-10.2091
▁tärisi	-10.2094
▁säpsähti	-10.2094
▁yllättyneenä	-10.2096
▁väkisin	-10.2097
▁auta	-10.2097
▁useita	-10.2109
▁leveästi	-10.2114
▁hyvi	-10.2119
▁aloitta	-10.2121
▁järkytty	-10.2121
▁tyytyväis	-10.2122
puoli	-10.2122
▁Vuo	-10.2125
▁lep	-10.2128
Oot	-10.2133
▁kaatui	-10.2133
lleni	-10.2139
▁juur	-10.2144
▁myö	-10.2145
▁loppui	-10.2145
ruskea	-10.2146
kymmentä	-10.2146
▁kahvila	-10.215
▁salamurhaaja	-10.2152
▁alaspäin	-10.2157
▁polvilleen	-10.2158
▁olevia	-10.2159
▁räp	-10.2164
jää	-10.2166
▁Tässä	-10.2166
▁japanilais	-10.2169
▁Vie	-10.2171
▁suupiele	-10.2182
▁ulottu	-10.2182
▁eteiseen	-10.2182
▁Pansy	-10.2182
▁kymmen	-10.2189
Ne	-10.2189
▁törmä	-10.2192
▁uskomattoman	-10.2193
▁mulla	-10.2195
▁jäisi	-10.22
pyör	-10.2209
▁huolen	-10.2212
▁kumarsi	-10.2213
▁suudella	-10.2216
▁vastauksen	-10.222
▁Antin	-10.2226
▁Missä	-10.2229
▁ote	-10.2236
▁ties	-10.2238
▁noita	-10.2239
ui	-10.224
▁peitti	-10.2242
▁kadot	-10.2244
▁palvelu	-10.2248
▁outo	-10.2249
pöydän	-10.2253
emään	-10.2255
▁mustan	-10.2255
▁varasta	-10.2256
tämä	-10.2257
▁jouko	-10.2257
isyyttä	-10.2257
▁eh	-10.2263
mmista	-10.2268
levä	-10.2269
▁salaa	-10.2271
▁Ajatus	-10.2277
▁ylöspäin	-10.2281
▁keskittyä	-10.2282
ttaan	-10.2287
▁Ryuun	-10.2288
▁nojautui	-10.2295
▁miettinyt	-10.2298
▁todellisuudessa	-10.2306
▁kivusta	-10.2306
▁ruskeankel	-10.2309
▁korvissa	-10.2309
▁huolissaan	-10.231
▁millä	-10.2317
▁loistava	-10.2318
▁tutun	-10.2321
kyn	-10.2323
▁aiko	-10.2332
▁liuku	-10.2333
▁ainut	-10.2333
▁toisti	-10.2333
▁tulleet	-10.2337
▁pakotti	-10.2344
▁leuka	-10.2347
▁liika	-10.235
▁sanoisi	-10.2354
▁jolle	-10.2361
▁Hitaasti	-10.2368
▁olevaan	-10.2371
▁Harrylle	-10.2371
mille	-10.2372
▁käytä	-10.2374
▁johtajansa	-10.2374
▁suuttu	-10.238
▁Ash	-10.2381
telleet	-10.2386
▁de	-10.2387
▁omassa	-10.2387
▁pieniä	-10.2388
▁kuuntelemaan	-10.2389
silmä	-10.239
▁heittä	-10.2391
▁niissä	-10.2396
simme	-10.2397
ilua	-10.2398
▁Charles	-10.24
▁työtä	-10.2403
▁tiukka	-10.2419
▁niskaan	-10.242
▁koiran	-10.2422
▁välittää	-10.2426
▁huulillaan	-10.2427
▁huokaisten	-10.2431
▁pitkälle	-10.2434
▁kär	-10.2439
▁täydellise	-10.2447
▁paljastu	-10.2451
▁leukaa	-10.2456
Sinulla	-10.2463
▁koriste	-10.2464
AN	-10.2464
▁mielellään	-10.2464
▁tilanteesta	-10.2464
▁hidas	-10.2466
▁virta	-10.247
▁selkään	-10.2472
kyky	-10.2474
▁hius	-10.2487
▁miettimään	-10.2489
oksia	-10.2494
▁Corrin	-10.2494
▁valvo	-10.2495
▁perusteella	-10.2495
▁hengittää	-10.2496
▁kummallise	-10.2499
ejä	-10.2502
▁avo	-10.2503
▁enkeli	-10.2504
▁peri	-10.2513
▁Retriksen	-10.2513
▁väsy	-10.2516
TA	-10.2517
housu	-10.2523
▁tuntien	-10.2523
▁selälleen	-10.2526
▁koit	-10.2528
mustahiuksisen	-10.2528
▁kääntyen	-10.2531
▁helppoa	-10.2533
▁ehdi	-10.2534
▁pitki	-10.2534
▁tarkoittanut	-10.2534
▁sääli	-10.2538
▁turvallise	-10.2538
▁sho	-10.2543
▁teillä	-10.2543
▁ihmettä	-10.2544
Minu	-10.2549
▁niille	-10.2549
▁selville	-10.2557
▁sellaisia	-10.2559
Hyvää	-10.2562
▁tiesivät	-10.2564
▁tasaise	-10.2567
ttyään	-10.2567
▁hoitaa	-10.2573
▁Koujirou	-10.259
▁Kädet	-10.259
▁Antoine	-10.259
▁karkuun	-10.2594
▁Huone	-10.2596
▁keskustelun	-10.2598
▁Kariluodon	-10.2607
▁armo	-10.2608
vistä	-10.2608
issään	-10.2612
▁sito	-10.2614
udella	-10.2614
Kyl	-10.2617
vuoro	-10.2621
▁Klaha	-10.2623
joja	-10.2625
▁puut	-10.263
▁muualla	-10.2631
ällä	-10.2636
▁hirveä	-10.2637
▁poikki	-10.2639
▁haukko	-10.2642
▁huoma	-10.2645
tuksia	-10.2645
▁tyls	-10.2645
ellut	-10.2649
ttaneet	-10.2652
▁Nämä	-10.2654
kkaita	-10.2655
▁pakotta	-10.2656
▁kärsivä	-10.2657
▁hylly	-10.2659
▁toisistaan	-10.2662
▁ylitse	-10.2665
▁kiusaa	-10.2667
▁lämpö	-10.2667
▁kipeä	-10.2671
Mene	-10.2678
▁kiinnosta	-10.2682
▁noja	-10.2682
▁jatkamaan	-10.2682
▁vapa	-10.2684
▁syvemmälle	-10.2686
▁olohuoneen	-10.2688
▁ujo	-10.269
▁Eiko	-10.2691
rkki	-10.2693
▁taa	-10.2697
▁pöydällä	-10.2699
nnassa	-10.2707
▁pudot	-10.2712
mmäksi	-10.2712
Tuota	-10.2717
ule	-10.2717
▁Kingsley	-10.2719
▁kushin	-10.2719
▁kuvaa	-10.272
▁tavata	-10.2721
▁huomata	-10.2721
syy	-10.2721
▁viikkoa	-10.2722
▁huonetta	-10.2722
▁syrjään	-10.2725
▁nai	-10.2727
neina	-10.273
tettyä	-10.2731
▁epävarma	-10.2737
▁hämärä	-10.2745
yyteen	-10.2745
▁must	-10.2746
▁tän	-10.275
Tietenkin	-10.275
▁yhteyttä	-10.2751
▁Raikage	-10.2751
▁rap	-10.2752
▁suojele	-10.2752
▁johtui	-10.2752
▁lyhyesti	-10.2754
▁kuume	-10.2755
▁pimeä	-10.276
joiden	-10.2761
▁karju	-10.2761
▁soitti	-10.2765
▁autta	-10.2766
Ra	-10.2767
▁laulu	-10.2772
▁tärkeää	-10.2778
▁menemään	-10.2788
rät	-10.2789
▁tärkei	-10.2797
▁olleen	-10.2802
▁hilj	-10.2808
▁toiste	-10.281
▁raha	-10.2812
▁levittä	-10.2815
▁Credence	-10.2816
▁hengissä	-10.2816
▁yhdellä	-10.2818
▁avaamaan	-10.2822
▁menettänyt	-10.2823
▁rintakehä	-10.2823
imman	-10.2825
▁muodosta	-10.283
▁miehelleen	-10.2841
▁tapana	-10.2845
▁jäivät	-10.2847
▁avautui	-10.2848
▁Albus	-10.2849
▁Ailey	-10.2849
▁apu	-10.2855
▁jutella	-10.2855
▁pääsee	-10.2856
villa	-10.2857
▁vatsaa	-10.2864
▁poistui	-10.2867
▁selkäänsä	-10.2867
▁tummi	-10.2869
ikon	-10.287
mut	-10.2871
▁aamuna	-10.2876
▁väittää	-10.2878
▁koettae	-10.288
▁paikassa	-10.2882
za	-10.2886
▁kykene	-10.2886
perä	-10.2894
▁vaihtu	-10.2894
Muista	-10.2894
▁tarpe	-10.2896
▁Rauskia	-10.2898
▁asento	-10.2899
taulu	-10.2901
▁julki	-10.2904
▁hyvinkin	-10.2906
▁vanhan	-10.2907
▁Narcissa	-10.2915
▁Ilmeisesti	-10.2915
▁kaikessa	-10.2915
▁noustessa	-10.2916
▁rauhaan	-10.2918
▁Tails	-10.2918
▁täytti	-10.2919
▁Nopeasti	-10.292
▁di	-10.292
▁oikee	-10.292
▁ul	-10.2922
▁peitto	-10.2922
▁osoit	-10.2928
▁nojaa	-10.2929
▁tieltä	-10.2929
▁pääty	-10.2934
▁jääde	-10.2935
▁hii	-10.2941
▁tuijottivat	-10.2944
▁sulla	-10.2945
▁taatelinruskea	-10.2948
▁hengen	-10.2949
▁parhaansa	-10.295
▁rakastava	-10.2952
▁man	-10.2956
▁lähtemään	-10.2956
▁kääntyivät	-10.2957
▁valhe	-10.2961
teja	-10.2963
kkoja	-10.2963
▁ammu	-10.2967
▁mahdollisesti	-10.297
▁seksiä	-10.2971
▁isäntä	-10.2973
▁laita	-10.2981
kia	-10.2981
▁särky	-10.2982
▁Päivä	-10.2982
▁suojella	-10.2983
▁näistä	-10.2983
▁varmistaa	-10.2987
▁ihmetteli	-10.2997
▁epäili	-10.3
▁Silmät	-10.3001
▁istuivat	-10.3003
▁puhut	-10.3008
▁kokonais	-10.3012
isempi	-10.3013
▁Vielä	-10.3014
▁aavistuksen	-10.3015
▁metrin	-10.3015
▁Chris	-10.3017
▁kapea	-10.3017
▁pitkät	-10.3018
aisu	-10.302
▁ilmassa	-10.3024
▁mennään	-10.3036
▁keskustelua	-10.3036
rion	-10.304
▁puuttui	-10.304
▁elo	-10.3045
▁kartano	-10.3049
▁vierestä	-10.3049
▁Entä	-10.3051
▁minuutin	-10.3052
▁paiska	-10.3059
▁keskittyi	-10.306
▁nouseva	-10.3062
▁sotku	-10.3063
▁työntä	-10.3068
▁kohotta	-10.3069
▁olkapäätä	-10.3074
▁turvassa	-10.3075
TÄ	-10.3075
gu	-10.3078
▁peukalo	-10.3079
▁Spock	-10.3082
▁harvoin	-10.3082
▁riko	-10.3083
▁vaihtoehtoja	-10.3084
▁täydellinen	-10.3086
▁väärässä	-10.309
▁ikään	-10.309
▁asetti	-10.3092
▁kove	-10.3093
▁Yö	-10.3093
pur	-10.3095
▁vieras	-10.3098
▁toivoo	-10.3101
▁makaava	-10.3103
▁viimeisi	-10.3106
▁alusta	-10.3107
▁unohta	-10.3111
▁käytös	-10.3113
▁arva	-10.3115
▁Elendil	-10.3115
▁kysele	-10.3116
▁monen	-10.3118
▁takanaan	-10.3124
▁omiin	-10.3132
▁ihon	-10.3133
▁päällään	-10.3134
▁mustaa	-10.3138
▁metsä	-10.3143
▁kuukausi	-10.3143
▁kysymykse	-10.3143
▁vähintään	-10.3149
▁söi	-10.3151
▁selvittää	-10.3152
▁kohdat	-10.3152
▁pika	-10.3152
▁kiil	-10.3153
lliset	-10.3154
yön	-10.3155
▁ruumi	-10.3158
arvo	-10.3159
tyksestä	-10.317
▁silmissään	-10.3174
▁The	-10.3181
▁Siihen	-10.3183
▁äänensävy	-10.3184
▁Jokeri	-10.3184
▁pöytää	-10.3187
▁Sai	-10.3192
▁kenen	-10.3192
▁minnekään	-10.3195
tuneen	-10.3197
kissa	-10.32
▁tupa	-10.3201
▁suh	-10.3208
ilja	-10.3209
▁sekin	-10.3211
▁Yasutomo	-10.3217
ichen	-10.3219
▁vilkuil	-10.322
▁selviä	-10.3221
▁kallisti	-10.3223
▁tippu	-10.3225
▁täs	-10.3227
▁kantaa	-10.3233
▁housut	-10.3234
▁vaale	-10.3244
eet	-10.3244
miehen	-10.3244
▁oppilaa	-10.325
▁idiootti	-10.3251
▁hotelli	-10.3251
▁kirosi	-10.3252
▁käytti	-10.3253
▁kaipasi	-10.3253
▁vitsi	-10.3255
▁pöly	-10.3255
▁sisko	-10.3258
▁vaihtaa	-10.3267
Ota	-10.3273
▁loitsu	-10.3277
▁rakastu	-10.3282
▁voimaa	-10.3282
▁astuu	-10.3283
▁hereillä	-10.3286
▁upea	-10.3287
▁rakkaus	-10.329
▁tunnelma	-10.3292
▁toivon	-10.3293
▁riittää	-10.3295
pel	-10.3298
▁liukui	-10.3298
▁puhtaa	-10.3299
▁lumi	-10.3302
▁keksinyt	-10.3302
▁Asia	-10.3305
▁esille	-10.3306
▁teho	-10.3307
isuudesta	-10.3308
▁Kenties	-10.3313
▁hetkeä	-10.3314
▁saati	-10.3315
▁maailmaa	-10.3316
ukon	-10.3317
▁Juizzi	-10.332
▁Äkkiä	-10.332
▁miehestä	-10.332
▁kosketus	-10.3321
▁vanhin	-10.3323
▁taputti	-10.3328
oida	-10.333
▁Je	-10.3332
Emme	-10.3332
ttelemaan	-10.3335
▁tuossa	-10.3339
elleen	-10.3339
▁ihmeessä	-10.334
voima	-10.3348
▁juoksu	-10.3348
ttäneet	-10.3353
ittele	-10.3354
▁noussut	-10.3354
▁siniharmaa	-10.3354
▁värähti	-10.3354
▁tarkista	-10.3357
▁kaivannut	-10.3357
▁valta	-10.3358
▁Bo	-10.336
yyden	-10.3367
▁Ottaa	-10.337
▁mar	-10.3383
▁teidät	-10.3389
▁auttoi	-10.3389
▁ovet	-10.3389
▁loju	-10.339
▁ime	-10.3391
telin	-10.3391
öö	-10.3394
▁samanlainen	-10.3394
dän	-10.3395
▁torju	-10.3396
▁liikkeen	-10.3396
▁edestä	-10.3406
▁alun	-10.3407
▁palannut	-10.341
▁salli	-10.3412
▁kutsua	-10.3418
▁do	-10.3422
▁kilju	-10.3424
▁teksti	-10.3424
▁totuuden	-10.3424
▁jälke	-10.3426
▁omien	-10.343
Harry	-10.3431
▁minäkin	-10.3435
▁vala	-10.3435
pallo	-10.3438
▁pistä	-10.3439
▁huulien	-10.344
▁vastustaja	-10.3442
▁pikkuisen	-10.3444
▁auttamaan	-10.3444
takki	-10.3446
▁puhelin	-10.3447
isivät	-10.3451
ykset	-10.3453
vuotiaa	-10.346
piste	-10.3468
Sen	-10.3469
▁arvioi	-10.3472
▁päätyi	-10.3473
▁sormiaan	-10.3476
▁rakka	-10.3479
▁yskä	-10.348
▁puheen	-10.3482
▁Ainakin	-10.3491
▁Loki	-10.3493
▁Scorpiuksen	-10.3493
▁Hymy	-10.3493
▁mietin	-10.3494
▁nauti	-10.3494
▁Seamus	-10.3495
▁tainnut	-10.3498
▁kehrä	-10.3498
▁Kello	-10.3499
pöytä	-10.3501
vahti	-10.3508
▁tehneet	-10.3509
▁kylmää	-10.3509
ohj	-10.3515
▁tukka	-10.3517
▁niskaansa	-10.3518
▁kirjo	-10.352
oissa	-10.3521
▁katsella	-10.3527
▁Tatsurou	-10.3529
▁Zafirah	-10.3529
▁kommentoi	-10.3529
▁tyyppi	-10.3529
▁sydäntä	-10.3537
▁mahdotonta	-10.3539
vara	-10.354
Siis	-10.3549
Kyllähän	-10.3549
Olemme	-10.3553
▁käytävää	-10.3557
▁keskustel	-10.3562
▁Graves	-10.3564
▁tuhahtaa	-10.3565
puhe	-10.3567
▁nähden	-10.3569
Kerro	-10.3571
▁raskas	-10.3578
▁lempi	-10.3581
kunta	-10.3588
▁uhri	-10.3588
▁of	-10.3589
▁elämään	-10.3589
▁Ronia	-10.3591
▁luis	-10.3594
tuksesta	-10.3598
▁Istu	-10.3598
▁Ivy	-10.3599
▁Japani	-10.36
Eli	-10.361
▁valtaa	-10.3615
▁halasi	-10.3618
▁epäily	-10.3622
▁nukkui	-10.3623
vissa	-10.3628
oksi	-10.3629
▁tajuaa	-10.3631
▁Nuo	-10.3632
▁tyyli	-10.3634
▁kesti	-10.3634
▁Oswald	-10.3635
▁suklaa	-10.3635
▁Justina	-10.3635
▁sanoista	-10.3635
▁putosi	-10.3636
▁kauniit	-10.3637
▁iki	-10.3648
▁tapasi	-10.3659
▁avio	-10.3665
▁Yuki	-10.3667
▁kulmat	-10.3669
▁Dumbledore	-10.367
▁kiihkeä	-10.367
▁kaikkein	-10.367
▁jonkinlaise	-10.3671
▁uutis	-10.3672
▁rah	-10.3674
teesta	-10.368
▁Kuten	-10.3683
▁Bu	-10.3684
tapa	-10.3686
▁pullon	-10.3688
▁kykeni	-10.3688
▁Rena	-10.3693
▁sylissä	-10.3695
▁puuha	-10.3696
▁Arakita	-10.3706
▁miellyttävä	-10.3706
▁merkiksi	-10.3706
▁varsinaisesti	-10.3706
▁ahdistu	-10.3706
▁alamaailma	-10.3708
▁Suome	-10.371
▁Ove	-10.3712
▁miestään	-10.3712
▁johto	-10.3714
etty	-10.3716
vassa	-10.3717
▁joilla	-10.3721
▁rake	-10.3725
▁löytyi	-10.3728
▁kuvan	-10.3729
rien	-10.3731
▁tiesin	-10.3734
▁laina	-10.3738
▁enemmänkin	-10.3742
▁pohjois	-10.3742
▁ilahtu	-10.3742
▁satuttaa	-10.3744
▁lensi	-10.3745
▁yllätty	-10.3745
minä	-10.3746
W	-10.3751
▁painajais	-10.3755
koko	-10.3756
Ette	-10.3756
▁matkaansa	-10.376
▁ylleen	-10.3762
▁takkinsa	-10.3768
▁valita	-10.3768
ljet	-10.377
▁vihja	-10.3772
▁miettien	-10.3775
tomi	-10.3776
▁Aina	-10.3776
▁tekevän	-10.3781
tkin	-10.3782
▁Vir	-10.3785
insä	-10.3785
▁kietoutu	-10.3785
▁pysäyttä	-10.3788
▁esittää	-10.3789
Siinä	-10.3791
▁nenän	-10.3794
▁paljasti	-10.3795
▁pettä	-10.3797
▁jonne	-10.3805
▁muutkin	-10.3807
▁itseni	-10.3809
tettävä	-10.381
▁ovella	-10.3814
▁lähtisi	-10.3814
▁kiemur	-10.3814
▁merkitystä	-10.3815
▁kulku	-10.3816
▁kohottautui	-10.3826
▁seinän	-10.3832
▁saavutta	-10.3835
uuteen	-10.3838
▁puuskahti	-10.385
▁karhea	-10.3851
ukan	-10.3853
▁tuoma	-10.3853
▁Leo	-10.3857
▁miehistä	-10.3861
▁saavat	-10.3869
Seth	-10.3869
väli	-10.3871
▁ihmettele	-10.3873
▁lue	-10.3874
▁koskettaa	-10.3874
▁joutuu	-10.388
▁iloise	-10.3882
▁kiukku	-10.3886
▁pitäen	-10.3887
▁seitsemän	-10.3908
ajan	-10.3909
Mitäs	-10.3913
lertäväsilmäinen	-10.3919
▁Anna	-10.3921
ettua	-10.3921
▁Bilbo	-10.3923
▁Yoshiki	-10.3923
▁käteni	-10.3925
▁Osakan	-10.3928
▁korke	-10.393
▁rento	-10.3933
▁helvettiä	-10.394
▁elämäänsä	-10.394
▁kuusi	-10.3943
▁rappu	-10.3944
▁kovuu	-10.3949
▁tapaamaan	-10.3951
▁kaapu	-10.3951
▁velvollisuu	-10.3955
▁ratkaisu	-10.396
teista	-10.396
gl	-10.3961
kiin	-10.3962
Ajattelin	-10.3962
▁myöhään	-10.3964
yksinkertaisesti	-10.3965
reiden	-10.3973
▁antamaan	-10.3976
▁hyvänsä	-10.3981
▁kysynyt	-10.3982
▁sitte	-10.3982
▁palan	-10.3984
▁Maa	-10.3989
▁tarkasti	-10.3996
▁tahtoi	-10.3997
▁takertu	-10.3997
▁kauempana	-10.3998
▁kuninkaan	-10.4
▁miks	-10.4006
▁suutelemaan	-10.4016
▁kiele	-10.4023
olen	-10.4025
istään	-10.4028
tilaa	-10.4032
▁kävely	-10.4033
▁tasapaino	-10.4033
▁sävyyn	-10.4037
▁tekivät	-10.4038
▁kireä	-10.4039
▁palja	-10.404
▁loh	-10.404
▁poimi	-10.4041
▁muistuttaa	-10.4041
▁ninja	-10.4043
▁kylkeä	-10.4043
▁tapaan	-10.4047
mestari	-10.405
Moi	-10.405
▁sisu	-10.4056
▁liikettä	-10.4057
▁painaen	-10.4058
▁korvat	-10.406
luun	-10.4062
lah	-10.4064
▁äly	-10.4067
▁sängyllä	-10.407
▁Rokka	-10.4071
▁leiju	-10.4071
▁muutakaan	-10.4072
▁nappaa	-10.4078
otti	-10.4081
▁it	-10.4082
valle	-10.4086
▁opi	-10.409
keita	-10.4104
▁ehtii	-10.4108
▁lämpimän	-10.4108
huoneeseen	-10.4112
▁tuollaista	-10.4117
▁pahan	-10.4124
▁rintakehää	-10.4126
▁huomionsa	-10.4126
▁juoda	-10.4128
▁ohimo	-10.4128
Tie	-10.4135
▁vitun	-10.4136
▁Yeol	-10.4138
▁Tur	-10.4142
▁hiljalleen	-10.4145
▁liikkeelle	-10.4145
▁jalkoihin	-10.4145
▁pul	-10.4147
▁olimme	-10.4148
▁parta	-10.4151
▁näp	-10.4152
▁taskustaan	-10.4153
mmät	-10.4155
▁paitaa	-10.4155
▁nähneet	-10.416
neensä	-10.4167
▁tapahtua	-10.4168
halu	-10.4169
▁Totta	-10.417
▁tutustu	-10.4173
▁liikahta	-10.4179
▁katsoessa	-10.4181
▁sanansa	-10.4181
▁anbu	-10.4182
▁Tuntui	-10.4182
▁suhtautu	-10.4183
▁vauhtia	-10.4184
▁pystyy	-10.4186
▁Kyl	-10.4191
▁Mun	-10.4194
▁halaukseen	-10.4196
▁kevyt	-10.4205
▁Lau	-10.4215
▁luulin	-10.4215
▁varmaa	-10.4219
▁Pari	-10.422
etaan	-10.4222
▁myönty	-10.4227
▁piilotta	-10.4227
▁Eiji	-10.4228
▁housujen	-10.4232
▁vakuu	-10.424
▁Vii	-10.4241
▁käyttävä	-10.4245
▁hengityksen	-10.425
▁Minseok	-10.4257
▁kiitollinen	-10.4257
▁vuode	-10.4265
▁virka	-10.4273
ydy	-10.4275
▁vierellä	-10.4285
▁kahdestaan	-10.4285
▁ylimääräi	-10.4287
▁Manan	-10.4287
▁käänty	-10.4288
▁saapunut	-10.4295
▁tyyty	-10.4295
▁armeija	-10.4295
▁erektio	-10.4295
▁kävellä	-10.4295
▁aukesi	-10.4296
▁ennemmin	-10.4296
▁muuri	-10.4296
▁tietämättä	-10.4299
▁omituise	-10.43
▁yllättynyt	-10.4302
▁toivonut	-10.4305
▁minuu	-10.4306
▁kävelee	-10.4318
▁suutelee	-10.4319
▁vartio	-10.4321
▁jäljiltä	-10.4333
▁Percy	-10.4333
▁tunnisti	-10.4333
▁jotkut	-10.4334
▁neiti	-10.4336
▁hoh	-10.4338
▁kantoi	-10.4338
▁leiri	-10.4343
▁sisar	-10.4347
▁alkaisi	-10.4347
▁alus	-10.4348
▁sanon	-10.4349
▁himo	-10.4353
▁liikkua	-10.4354
▁putoa	-10.4356
Re	-10.437
▁elämästä	-10.4371
▁jäykisty	-10.4372
▁söpö	-10.4372
▁läsnäolo	-10.4372
▁lika	-10.4372
▁tilanteeseen	-10.4373
▁kivun	-10.4373
▁jätä	-10.4374
ppä	-10.4374
▁niillä	-10.4375
▁olisit	-10.4377
▁sekoit	-10.4382
▁kuljetta	-10.4383
▁Jannelle	-10.4384
▁vahingo	-10.4389
▁ravintola	-10.439
▁kilpa	-10.4392
?!	-10.4393
▁tietty	-10.4395
▁valot	-10.44
▁minulta	-10.441
▁rehtori	-10.441
▁vakooja	-10.441
▁hassu	-10.441
▁osallistu	-10.4411
▁ääniä	-10.4411
▁Keski	-10.4414
▁viel	-10.4415
▁paeta	-10.4418
leen	-10.4423
▁Ovi	-10.4423
▁ajattelee	-10.4423
tyivät	-10.4426
▁Tom	-10.4429
▁Tunne	-10.4435
▁lopetta	-10.4437
▁käsin	-10.4438
Kuten	-10.4441
▁tavallise	-10.4443
▁johtajan	-10.4446
Saat	-10.4448
▁oveen	-10.4449
▁itseäni	-10.4452
▁tahtia	-10.4453
ovi	-10.4455
▁tehä	-10.4457
▁Jokainen	-10.4461
▁saatana	-10.4462
työ	-10.4463
▁läp	-10.4463
▁luja	-10.4464
▁huhu	-10.4464
tyään	-10.4471
▁koulun	-10.4472
▁go	-10.4476
▁vilkuili	-10.4479
▁hyvästä	-10.4481
▁Seuraava	-10.4482
▁ehdottomasti	-10.4487
▁ojentaa	-10.4487
▁vaikutus	-10.449
Odota	-10.449
▁puristu	-10.4491
▁kaatoi	-10.4493
toverei	-10.4498
▁Usko	-10.4499
▁hengit	-10.4502
tetään	-10.4505
▁katselee	-10.4506
▁Viime	-10.4508
▁lopetti	-10.4509
▁taitaa	-10.451
▁Remusta	-10.4512
▁kurkku	-10.4521
▁rauhoittava	-10.4521
▁tilante	-10.4523
▁outoa	-10.4524
▁lyhyt	-10.4525
mpänä	-10.4525
▁Robards	-10.4526
▁Virnistää	-10.4526
▁viittasi	-10.4526
▁tahtiin	-10.4529
▁hitto	-10.4532
▁kävisi	-10.4535
▁pyytänyt	-10.4535
▁taitava	-10.4535
▁nousivat	-10.4538
lehti	-10.4538
▁riisui	-10.454
▁vetäen	-10.4549
Mie	-10.4551
Po	-10.456
▁tutkimaan	-10.4562
loo	-10.4563
▁Jinpachi	-10.4565
▁harrasta	-10.4565
▁huomatessaan	-10.4565
▁reisi	-10.4568
▁mieti	-10.4569
▁paranta	-10.457
▁tunki	-10.4571
▁kylkeen	-10.4571
▁lähettää	-10.4578
▁kuulin	-10.4584
▁sohvalta	-10.4587
▁Co	-10.4596
▁historia	-10.4604
▁miele	-10.4604
▁Miksu	-10.4604
kunnan	-10.4605
▁Tietenkin	-10.4605
▁osaisi	-10.4607
▁silittää	-10.4607
▁Tonyn	-10.4607
▁Dracoa	-10.4607
▁tavannut	-10.4608
▁paita	-10.4611
▁olemukse	-10.4613
▁toisinaan	-10.4617
▁tuulen	-10.4618
töntä	-10.462
Na	-10.462
▁nauttia	-10.4631
▁irrot	-10.4632
▁hyviä	-10.4633
▁este	-10.4636
▁kipua	-10.4638
▁hor	-10.4639
▁kauhistu	-10.4642
▁sotilaat	-10.4643
▁selkänoja	-10.4643
▁Miya	-10.4644
▁vilkaisee	-10.4644
▁kummankin	-10.4645
▁rakkautta	-10.4646
▁tulevat	-10.4647
isessä	-10.465
▁valossa	-10.4655
hel	-10.4661
▁ansiosta	-10.4666
▁Hy	-10.4667
▁pidän	-10.4672
chika	-10.4679
▁otteesta	-10.4682
▁bussi	-10.4682
▁pudista	-10.4683
▁radio	-10.4683
▁innoissaan	-10.4683
▁kääri	-10.4683
▁hermostuneena	-10.4685
▁sain	-10.4687
▁mää	-10.4688
▁ehdottaa	-10.469
neista	-10.469
sarja	-10.4691
▁uskon	-10.4691
▁jääneet	-10.4696
▁johdatta	-10.4696
▁Toivottavasti	-10.47
▁tyttöä	-10.4706
▁kana	-10.4712
▁yrittäisi	-10.4714
▁puhetta	-10.4716
▁Luffy	-10.4722
▁mieheen	-10.4722
▁puun	-10.4729
▁hiuksensa	-10.4729
▁sinäkin	-10.473
▁viiden	-10.473
▁ilmeensä	-10.4741
Oi	-10.4741
▁voimakkaa	-10.4745
▁tapaamis	-10.4752
▁kaulalle	-10.4755
▁yksinkertais	-10.4757
▁Ir	-10.4761
▁kaikui	-10.4761
▁Yleensä	-10.4761
▁täsmälleen	-10.4761
▁Derek	-10.4762
▁välin	-10.4766
▁lapset	-10.4767
▁vangit	-10.4775
▁ajatuksen	-10.478
rasia	-10.4792
▁Hyde	-10.4794
▁pimeää	-10.4795
chan	-10.4798
▁Tatemonoki	-10.4801
▁parhaillaan	-10.4801
▁Akseli	-10.4801
▁ovelta	-10.4801
▁äänestä	-10.4802
▁kaulan	-10.4802
▁järkeä	-10.4802
▁Halu	-10.4802
▁Jumala	-10.4804
▁kävelivät	-10.4805
Haluan	-10.4807
Hyvin	-10.4814
ham	-10.4816
▁selässä	-10.4817
▁poispäin	-10.4818
▁hämmentynee	-10.482
käyttö	-10.4822
Toivottavasti	-10.4823
▁luva	-10.4824
▁teit	-10.4825
▁periksi	-10.4825
▁koitti	-10.4825
▁vino	-10.4829
▁suojaa	-10.4831
▁Kaiken	-10.4837
Tässä	-10.4837
▁juomaa	-10.4838
maisen	-10.4838
▁kerrankin	-10.484
▁Yhtäkki	-10.4841
▁legenda	-10.4841
▁päätty	-10.4843
▁seuraamaan	-10.4844
▁huonosti	-10.4844
eita	-10.4846
▁hymyillä	-10.4848
▁iholla	-10.4849
▁päättäväisesti	-10.4849
▁Shin	-10.485
▁toisilleen	-10.4851
▁riski	-10.4858
▁kertoisi	-10.4864
tyksi	-10.4864
▁hymyä	-10.487
uttaen	-10.4872
misessa	-10.4872
▁Tuli	-10.4873
▁tapahtuisi	-10.488
▁epäonnistu	-10.4881
▁merkitsevästi	-10.4881
▁pörrö	-10.4881
▁Wanda	-10.4882
Tiedät	-10.4883
▁kaulaan	-10.4889
▁peräänsä	-10.4891
tukset	-10.4894
▁Pit	-10.4902
▁malli	-10.4904
▁kap	-10.4917
koulu	-10.4919
▁ite	-10.4919
▁purskahti	-10.4922
▁chakra	-10.4922
▁viikonloppu	-10.4922
▁ikkunoi	-10.4922
▁pienet	-10.4922
▁juna	-10.4922
▁raskaan	-10.4923
▁ajoissa	-10.4924
▁tulit	-10.4925
▁kaiku	-10.4925
▁nuorempaa	-10.4927
▁kävellessään	-10.4927
▁työntyi	-10.493
▁kiven	-10.4934
▁erilaisia	-10.4934
▁nää	-10.4942
▁seuraavana	-10.4943
▁Oikeastaan	-10.4944
ude	-10.4951
▁kuolleen	-10.4954
▁kehonsa	-10.4957
▁mainitse	-10.4962
▁ottaessa	-10.4963
▁kieltää	-10.4965
tavaa	-10.4965
▁Lancen	-10.4967
▁pojalle	-10.4969
▁muutenkaan	-10.4974
kello	-10.4976
▁näyttämään	-10.4977
▁laukku	-10.4979
▁kuppi	-10.4981
▁valmista	-10.4981
▁makaa	-10.4981
▁Luhan	-10.4981
▁loma	-10.4983
▁tunke	-10.4984
▁vaattei	-10.4986
▁kuivu	-10.4986
▁turhaa	-10.499
▁märkä	-10.499
▁juoksemaan	-10.4991
kaisee	-10.4992
pöydälle	-10.4993
▁köy	-10.4995
▁Rahikaista	-10.5003
▁Jotain	-10.5004
▁makuuhuoneen	-10.5004
▁miksei	-10.5004
▁harppo	-10.5006
▁ruusu	-10.501
kkar	-10.5012
▁puolet	-10.5013
iseltä	-10.5014
▁voimakkaasti	-10.5022
▁Iidalle	-10.5023
▁etkä	-10.5028
▁Marcon	-10.503
laat	-10.5034
▁jalan	-10.5034
kselle	-10.5036
▁japanilainen	-10.5044
▁sinulta	-10.5044
Kuul	-10.5045
▁mulkaisi	-10.5045
▁pärjää	-10.5046
▁maasta	-10.5046
▁tokaisi	-10.5052
▁kirjeen	-10.5053
▁hymyile	-10.5054
▁viska	-10.5057
tyneen	-10.5064
▁huomioon	-10.5065
▁kostu	-10.5065
▁lämmintä	-10.5076
▁kädellä	-10.5077
▁punastui	-10.5079
ksensa	-10.508
liha	-10.508
▁kohtee	-10.5083
liina	-10.5084
▁kahdeksan	-10.5087
▁pudotta	-10.5089
▁vaunu	-10.5091
elmi	-10.51
▁lukuun	-10.51
▁lähetti	-10.5107
▁iskeytyi	-10.5108
▁Go	-10.5111
▁muihin	-10.5111
▁näyttävä	-10.5113
▁hyväksi	-10.5115
isemaan	-10.5117
▁Potterin	-10.5123
gel	-10.5125
▁vaihto	-10.5126
▁käärme	-10.5126
▁vakavoitu	-10.5126
▁Aurinko	-10.5126
▁herännyt	-10.5126
▁hyötyä	-10.5127
▁neljän	-10.5138
▁kostea	-10.5138
▁hyö	-10.514
▁purkautu	-10.5142
▁jatkui	-10.5142
▁tältä	-10.5144
▁tummanruskea	-10.5146
▁pihalle	-10.5158
▁haluaisin	-10.516
▁Pal	-10.516
össä	-10.5162
▁Thranduil	-10.5167
▁haavoittu	-10.5167
▁ovia	-10.5167
▁kapteeni	-10.5167
▁pieneen	-10.5168
▁valkoisen	-10.5168
▁toiminta	-10.5173
▁kynsi	-10.5173
▁mahtava	-10.5175
▁kohde	-10.5179
▁yltä	-10.5183
▁rakastunut	-10.5188
atesuunnittelija	-10.5192
Katso	-10.5193
▁Halusin	-10.5204
kohan	-10.5204
▁Ruotsi	-10.5209
▁kengät	-10.5209
▁Lontoo	-10.5209
▁tuijottaen	-10.5209
▁olalle	-10.5218
▁vaikutta	-10.5218
▁maku	-10.5219
▁asui	-10.5221
stuksen	-10.5223
▁kauhusta	-10.5223
▁kestäisi	-10.523
Tää	-10.5231
▁monia	-10.5245
▁tyhjää	-10.525
▁Makoto	-10.5251
laan	-10.5254
▁kasaan	-10.5258
mmältä	-10.5261
ähdyksen	-10.5262
▁tol	-10.5262
ttavia	-10.5266
▁Teru	-10.5269
▁talossa	-10.5269
kausi	-10.5272
▁istunut	-10.5277
▁kumppani	-10.5279
▁jatkuva	-10.5286
▁Keisuke	-10.5292
▁unohtu	-10.5292
▁yritin	-10.5292
▁Takumi	-10.5292
▁kysymyksiä	-10.5293
▁Irene	-10.5295
▁henkeään	-10.5296
▁mahdollisuus	-10.5302
▁Luo	-10.5303
▁purka	-10.5304
▁Haluan	-10.5306
teni	-10.5308
▁kasvoihin	-10.5308
▁hyvät	-10.5313
kymmene	-10.5314
▁ottaisi	-10.5319
▁sisäänsä	-10.5319
▁paljaa	-10.5321
▁tarkkaili	-10.5322
uutensa	-10.5324
▁Cal	-10.5328
▁haluut	-10.5332
▁Hongjoong	-10.5334
▁Jeeves	-10.5334
▁naurettava	-10.5334
▁syksy	-10.5334
▁kip	-10.5334
▁aiheuttama	-10.5335
▁kuuluvasti	-10.5336
▁-”	-10.5339
▁totuus	-10.534
▁ottamatta	-10.5342
▁Vastaa	-10.5347
▁vink	-10.5349
▁Käy	-10.5352
▁sanottua	-10.5353
▁päähänsä	-10.5358
iivi	-10.5359
▁menivät	-10.5361
Minusta	-10.5363
kyl	-10.5363
▁rikki	-10.5363
▁De	-10.5368
▁kiivaasti	-10.5376
▁lähtö	-10.5378
▁tilalle	-10.5378
▁kovinkaa	-10.5379
▁kuvio	-10.5379
▁unen	-10.5381
▁Tonksin	-10.5384
▁tuohon	-10.5385
▁Ruizan	-10.5389
▁maistu	-10.539
Voit	-10.539
▁yöllä	-10.5392
▁nähdäkseen	-10.5392
▁onnellisena	-10.5398
▁muo	-10.5405
▁kylän	-10.5409
▁iloisesti	-10.5409
▁väre	-10.541
▁lyhemmän	-10.5419
▁rytmi	-10.5419
▁yritykse	-10.5419
▁Tyce	-10.542
▁itsekään	-10.5422
▁keittiössä	-10.5423
utensa	-10.5427
jään	-10.5432
▁Alkaa	-10.5435
saman	-10.544
juu	-10.5442
▁rakenta	-10.5443
▁voimakas	-10.5449
▁värisi	-10.5449
▁vika	-10.5449
▁taito	-10.545
▁ruskeat	-10.5459
▁sekunti	-10.5463
▁Kaidan	-10.5466
▁ison	-10.5467
▁sattunut	-10.5471
öitä	-10.5474
▁halusivat	-10.5477
▁suurina	-10.5478
yden	-10.549
▁sanojaan	-10.549
opa	-10.5494
▁arvata	-10.5502
▁prinsessa	-10.5504
▁edusta	-10.5504
▁kulmakarva	-10.5505
▁kyynärpää	-10.5505
▁Isildurin	-10.5505
▁kuukautta	-10.5508
▁pese	-10.5513
▁näyttäen	-10.5515
▁hauska	-10.5515
▁suljettu	-10.5515
emmaksi	-10.5518
▁nousemaan	-10.552
oppi	-10.5521
▁valko	-10.5523
▁lähestyi	-10.5524
▁kelloa	-10.5528
▁ruskea	-10.5532
▁auko	-10.5537
▁mafian	-10.5539
▁kuunnel	-10.5541
Aivan	-10.5544
▁lauka	-10.5546
neelle	-10.5547
▁William	-10.5547
▁pienestä	-10.5547
▁reunalle	-10.5547
▁voimalla	-10.5548
▁vuonna	-10.5548
▁elokuva	-10.5548
▁todiste	-10.5548
▁huoneeseensa	-10.5549
▁kohteli	-10.555
▁omalle	-10.555
▁pilvi	-10.5551
▁antaen	-10.5552
tellessaan	-10.5553
▁riippu	-10.5553
▁ajatuksia	-10.5562
▁tein	-10.5567
▁lento	-10.5568
▁avain	-10.557
▁täyteen	-10.5576
▁huvittunee	-10.5576
▁nimessä	-10.5578
▁tyyne	-10.5579
aito	-10.558
▁sume	-10.5583
▁Lee	-10.5586
neesta	-10.5586
▁Thorin	-10.5586
▁Sormet	-10.559
▁asevastaava	-10.559
▁haitannut	-10.559
▁aamiais	-10.559
▁hallitse	-10.5591
▁Ääni	-10.5591
▁suuntasi	-10.5592
▁askelin	-10.5592
▁fr	-10.5592
▁Sini	-10.5594
▁vaatteiden	-10.5595
▁ihmistä	-10.5596
▁jalkaansa	-10.56
ow	-10.5601
▁elämässä	-10.5603
▁liittyi	-10.5619
▁katseet	-10.5621
▁Her	-10.5623
▁kiertä	-10.5623
▁arpi	-10.5627
▁kurkkuun	-10.5629
▁Seonghwa	-10.5633
▁Kohta	-10.5634
▁omituis	-10.5637
miseksi	-10.5638
▁Neville	-10.5638
▁surullise	-10.5644
▁Per	-10.5646
▁murtu	-10.5647
ber	-10.5648
▁reunaa	-10.5649
▁luvannut	-10.5654
▁ravi	-10.566
▁viattoma	-10.5661
▁lähestyvä	-10.5662
▁pitkää	-10.5665
▁My	-10.5667
▁sopivaa	-10.5671
▁laajen	-10.5672
▁itsevarma	-10.5677
▁ulkopuolella	-10.5678
miaan	-10.5678
▁vaikeni	-10.5678
▁pakene	-10.5679
tieto	-10.5682
▁taivaan	-10.5684
▁Siis	-10.5685
▁yllään	-10.5686
▁valkoinen	-10.5687
▁turhankin	-10.5689
▁potki	-10.569
▁vakaa	-10.5692
▁paikallaan	-10.5693
▁riitti	-10.5693
▁pakottaa	-10.5696
▁ruskeasilmäinen	-10.5701
▁seurata	-10.5701
telyä	-10.5703
▁keittiöstä	-10.5705
teitä	-10.5706
▁kuvia	-10.5707
▁käsistä	-10.5719
▁Ainoa	-10.5719
▁verrattuna	-10.5721
▁pistooli	-10.5721
▁Henrik	-10.5721
▁askeleet	-10.5721
▁istahti	-10.5722
ger	-10.5722
▁nauraen	-10.5724
▁maali	-10.5725
▁Herra	-10.5733
▁korviin	-10.5735
▁Isakin	-10.5739
stra	-10.5741
sanin	-10.5741
▁tiety	-10.5742
▁lomasta	-10.5744
▁paitansa	-10.5744
▁raapi	-10.5747
ttar	-10.5757
▁siirtää	-10.576
luokka	-10.5763
▁***	-10.5764
▁huulilla	-10.5764
▁Yakuza	-10.5764
▁kuningatar	-10.5764
▁Myös	-10.5764
▁Sauron	-10.5765
▁Emil	-10.5766
▁Emme	-10.5776
▁koru	-10.5779
▁Kaike	-10.578
▁paikalleen	-10.5781
▁arvosta	-10.5784
▁hymyilevä	-10.5787
▁lumo	-10.5788
▁osoittaa	-10.5789
varti	-10.5797
▁Yu	-10.5798
▁veli	-10.5799
▁perse	-10.5805
Selvä	-10.5806
▁Kur	-10.5807
▁valitettavasti	-10.5808
▁Viljami	-10.5808
▁pakaroi	-10.5809
▁Clint	-10.5809
▁hiekka	-10.5812
▁tähden	-10.5814
▁Wen	-10.5814
▁Tuskin	-10.5817
▁neste	-10.582
Mikset	-10.5823
▁loukkaantunee	-10.5826
▁helli	-10.5831
▁häiritse	-10.5832
lappu	-10.5833
▁Ed	-10.5837
isyyden	-10.5838
▁kännykkä	-10.5848
tömästi	-10.5851
▁Andromeda	-10.5853
▁Eleanor	-10.5853
▁irvisti	-10.5853
▁lävitse	-10.5853
▁värjä	-10.5853
▁odottaen	-10.5853
▁siro	-10.5854
▁viereise	-10.5855
▁asioiden	-10.5856
▁näkivät	-10.5857
▁edellä	-10.5858
▁kulkivat	-10.5858
▁hevos	-10.5859
▁ale	-10.586
▁tietävä	-10.5861
▁yllättävä	-10.5862
▁peittää	-10.5863
ttomia	-10.5865
Tuli	-10.5868
▁roh	-10.5868
▁helpotuksesta	-10.5871
nnosta	-10.5873
▁paikkansa	-10.5873
▁Ase	-10.5873
▁valoa	-10.5875
▁Tsunehiton	-10.5875
▁hakea	-10.5876
ppiin	-10.5883
▁nimensä	-10.5886
▁bi	-10.5887
▁pöydältä	-10.589
mmasta	-10.5894
▁Chanyeolin	-10.5894
▁valkoisi	-10.5896
▁tavaroita	-10.5897
Huomenta	-10.5897
▁tällaista	-10.5897
▁kamera	-10.5898
▁järkyttyneenä	-10.5898
▁kuukauden	-10.5899
▁rinnassa	-10.59
▁väitti	-10.5902
anssi	-10.5904
▁laki	-10.5908
▁kiertää	-10.5908
▁Ilta	-10.5914
ahtamaan	-10.5914
▁juoru	-10.5915
mmiksi	-10.5915
dessään	-10.5917
▁levit	-10.592
▁iltapäivä	-10.592
▁menettää	-10.5922
Sitten	-10.5934
Äiti	-10.5934
▁lujaa	-10.5935
▁Naur	-10.5941
▁sihteeri	-10.5942
▁matkusta	-10.5942
▁kunnioitta	-10.5942
▁jaksoi	-10.5945
ettava	-10.5947
▁vihasi	-10.5951
▁vaime	-10.5954
▁Pitkä	-10.5955
▁myöntä	-10.5956
▁Maria	-10.5959
▁humalassa	-10.5962
▁onnea	-10.5968
▁muste	-10.5969
▁siel	-10.5971
▁puiden	-10.5975
Eikä	-10.5978
▁suutele	-10.5981
▁pidempään	-10.5981
Usko	-10.5983
▁liikkeellä	-10.5987
▁touhu	-10.5987
▁rakennus	-10.5987
llisuus	-10.5989
▁kurotta	-10.599
empana	-10.5992
▁hämmenty	-10.5992
▁tarkkaan	-10.5993
▁pahalta	-10.5995
▁leve	-10.6001
▁tuoda	-10.6018
Al	-10.602
▁nukkunut	-10.6027
▁alkaen	-10.6029
▁pelännyt	-10.6032
▁Kushina	-10.6032
▁tyttäre	-10.6032
▁aikeissa	-10.6032
▁sekunnin	-10.6032
▁aikoja	-10.6037
▁vastus	-10.6038
▁koste	-10.6043
▁viina	-10.6046
▁Meidän	-10.6052
▁vaivaantu	-10.6055
▁Tumma	-10.6061
▁Susan	-10.6063
▁tupakka	-10.6072
laatikko	-10.6075
▁tarjosi	-10.6075
▁läsnä	-10.6076
▁miljonääri	-10.6077
▁orgasmi	-10.6077
kaissut	-10.6077
▁meinasi	-10.6078
▁yöksi	-10.6078
▁Taka	-10.608
▁valitse	-10.6083
▁kääntynyt	-10.6084
▁ilmi	-10.6088
tukka	-10.6093
▁pitävän	-10.6094
▁nukkuu	-10.6105
ttuun	-10.611
Jep	-10.611
Kysy	-10.6111
▁huolehtia	-10.6112
▁arvaa	-10.6118
Käy	-10.6122
▁kiskaisi	-10.6122
▁Greg	-10.6122
▁kuunnellut	-10.6123
▁olis	-10.6126
▁etelä	-10.6129
▁kuvitel	-10.6129
▁otsaa	-10.613
▁tummat	-10.6134
▁alaisensa	-10.6136
▁vaaleampi	-10.6138
▁tyhjäksi	-10.6139
isellä	-10.614
▁päätös	-10.614
▁pyydä	-10.6151
▁tuhka	-10.6152
▁Mustat	-10.6156
▁pallo	-10.6159
tellessa	-10.6159
▁Sama	-10.6159
▁kielen	-10.6161
▁päi	-10.6166
▁Minhyun	-10.6168
▁Nuorukainen	-10.6168
▁uskalla	-10.6168
▁voidaan	-10.6169
▁Sanat	-10.6169
▁mieheltä	-10.6169
▁repäis	-10.6169
rah	-10.617
▁ruskei	-10.617
ilivat	-10.6171
▁kohautta	-10.6171
▁sukulais	-10.6172
siiv	-10.6172
▁viestiä	-10.6175
▁portaita	-10.6175
▁asioi	-10.6176
▁tekemis	-10.6181
gh	-10.6199
kkö	-10.62
▁ostaa	-10.6206
▁Miksei	-10.6207
▁komea	-10.6208
oven	-10.6208
▁ajaa	-10.6211
▁ansaitse	-10.6214
▁jaloilleen	-10.6214
Milloin	-10.6215
▁kasvi	-10.6216
▁esine	-10.6218
▁kosketuksen	-10.6223
▁kaulaansa	-10.6227
▁keskustella	-10.623
▁Mene	-10.6231
▁tietäen	-10.6232
▁pla	-10.6234
▁lattialta	-10.6237
Mihin	-10.6251
▁ratsasta	-10.626
▁Igor	-10.626
▁yläpuolella	-10.626
▁lopullisesti	-10.6263
▁sade	-10.6264
▁turhautuneena	-10.6264
▁suukotti	-10.6267
▁voivat	-10.6273
▁keittiö	-10.6276
▁koki	-10.6279
▁pysymään	-10.6281
▁Yllät	-10.6283
▁kolmas	-10.629
kaveri	-10.6292
oille	-10.6293
▁Lähe	-10.6297
IS	-10.6299
▁houk	-10.6303
▁viitsi	-10.6304
▁Inoue	-10.6306
▁naapuri	-10.6306
▁liitto	-10.6307
▁vakavi	-10.6307
▁etene	-10.6309
yydestä	-10.6313
▁Matka	-10.6313
▁vaiti	-10.6316
▁kahdesta	-10.6319
▁muistutta	-10.632
▁itkeä	-10.6324
▁mit	-10.6329
▁valmii	-10.6331
▁kääntyessä	-10.6333
▁puhuneet	-10.6339
▁oppilas	-10.6346
▁uuteen	-10.6352
▁Hannibal	-10.6353
▁käsivartensa	-10.6353
▁tällöin	-10.6353
▁hampaiden	-10.6353
▁vajosi	-10.6353
▁Tao	-10.6356
▁viile	-10.6359
Tiedätkö	-10.6359
▁ollen	-10.636
▁saisivat	-10.6368
▁voimia	-10.637
▁susta	-10.637
elämä	-10.6371
▁karkaa	-10.6371
▁perääntyi	-10.6373
alue	-10.6374
▁kiinnittänyt	-10.6377
▁yks	-10.6379
Mmm	-10.6382
▁sytty	-10.6391
▁joihin	-10.6395
▁taisteli	-10.6395
nnalla	-10.6396
▁lipu	-10.6396
▁sängystä	-10.6399
▁riittävästi	-10.64
▁lukenut	-10.64
▁Yoru	-10.64
▁Vision	-10.64
▁irto	-10.6401
▁maksaa	-10.6404
▁porukka	-10.6404
▁haluun	-10.6406
▁kivaa	-10.6406
▁kosto	-10.641
▁viipy	-10.641
▁kielensä	-10.6413
▁karva	-10.6415
▁olekaan	-10.6423
▁tietävän	-10.6432
gg	-10.6439
▁valuivat	-10.6441
▁kysymystä	-10.6442
Ar	-10.6442
▁Gabriel	-10.6446
▁tiiviisti	-10.6446
▁sellaiseen	-10.6447
▁varpai	-10.6448
▁poikien	-10.6449
time	-10.6451
▁viiniä	-10.6454
▁Ex	-10.6455
Yritä	-10.6456
piirtei	-10.6459
▁omiaan	-10.6459
▁murhe	-10.6461
issut	-10.6462
▁puhelimensa	-10.6469
▁vanhempa	-10.6473
▁selväksi	-10.6476
che	-10.6477
▁alka	-10.648
▁suurimman	-10.648
▁ajatukse	-10.6482
▁Dave	-10.6484
kurssi	-10.6485
▁vetäisi	-10.6492
▁limusiini	-10.6494
▁ripeästi	-10.6494
▁äidille	-10.6494
merkkejä	-10.6494
▁tilaisuuden	-10.6497
▁loukka	-10.6497
ateria	-10.6499
▁tuntiessaan	-10.6499
▁illallis	-10.65
▁katsoessaan	-10.6507
dra	-10.651
▁joukossa	-10.651
▁Minusta	-10.651
▁helma	-10.6511
▁kylmän	-10.6512
▁kiinnostanut	-10.6512
▁pitivät	-10.6515
▁sattuma	-10.6523
▁palaisi	-10.6524
▁parhaan	-10.6525
▁Hetke	-10.6526
▁toiminut	-10.653
▁ajo	-10.653
▁nouse	-10.6534
▁kauppa	-10.6537
▁käsiin	-10.6538
▁Hietasen	-10.6541
▁Kakashi	-10.6541
▁aurori	-10.6541
▁naurahtaen	-10.6541
▁kovempaa	-10.6545
▁ilmoittaa	-10.6548
▁otteensa	-10.6552
▁liukas	-10.6552
▁huolestuneena	-10.6553
▁hyökkää	-10.6561
▁vanhempaa	-10.6562
▁pitkiä	-10.6563
IT	-10.6566
▁pelotti	-10.6572
▁kertoja	-10.6576
▁kattoa	-10.6584
▁väärää	-10.6585
▁metsän	-10.6588
▁energia	-10.6589
▁prinssi	-10.6589
▁lauantai	-10.6589
▁paista	-10.659
▁kauniin	-10.659
▁kiuku	-10.6591
▁kuninkaa	-10.6591
▁kieltämättä	-10.6593
elu	-10.6595
der	-10.6597
▁lakana	-10.6599
▁Thor	-10.66
▁käyttänyt	-10.66
▁kohtaamaan	-10.6605
▁vienyt	-10.6606
dessa	-10.6608
ympäristö	-10.6609
▁havahtui	-10.6614
▁tietokone	-10.6614
▁loukkaantu	-10.6614
▁lämpöä	-10.6617
▁humala	-10.6619
▁kala	-10.663
Onneks	-10.6631
▁kohottaa	-10.6635
▁ilmiselvä	-10.6636
▁hirviö	-10.6637
▁pimeyden	-10.6637
▁ärsyttävä	-10.6638
▁vaaleahiuksinen	-10.6639
▁Enkä	-10.6643
▁teistä	-10.6644
▁kerää	-10.6646
▁punainen	-10.6647
▁mahtu	-10.6647
▁Työ	-10.6648
▁Juo	-10.665
▁Vanhala	-10.6655
ikäise	-10.6656
▁leiki	-10.6657
▁näkemä	-10.6659
▁punaisen	-10.6659
▁otsaansa	-10.667
▁säikähtä	-10.6672
▁vastaamaan	-10.6675
toimi	-10.6677
SI	-10.6678
▁keinu	-10.668
▁Holmes	-10.6685
▁yliopisto	-10.6685
▁vartalonsa	-10.6694
▁tarkoitta	-10.6694
▁kääntyä	-10.6696
▁toteutta	-10.6697
▁omistaja	-10.6697
▁synkkä	-10.6698
▁vierellään	-10.6698
joista	-10.6699
▁katselemaan	-10.6699
▁tuonut	-10.6699
▁autosta	-10.6699
yksestä	-10.6701
▁paljastaa	-10.6701
▁omaansa	-10.6709
▁varuste	-10.6712
▁aivot	-10.6715
▁vaativa	-10.6716
tunto	-10.6721
▁asentoon	-10.6721
▁päästänyt	-10.6725
▁tuntua	-10.6729
▁Yifan	-10.6733
▁perjantai	-10.6733
▁baarimikko	-10.6733
▁teräväpiirteise	-10.6733
▁Tifa	-10.6733
▁komensi	-10.6735
▁seisoo	-10.6737
▁luulet	-10.6737
▁kertoivat	-10.6738
▁laukea	-10.6739
hyvä	-10.6741
▁ihmetellen	-10.6743
▁kyllästy	-10.6744
▁viihty	-10.6744
▁rajusti	-10.675
ttavaksi	-10.6751
▁murisi	-10.6751
▁sanoma	-10.6753
▁Arminin	-10.6758
▁pyyhkäis	-10.6758
▁kieltään	-10.6766
▁korjaa	-10.6767
tellu	-10.6769
▁välillään	-10.6769
▁kasvoilta	-10.6775
▁sive	-10.6781
▁Ruskeahiuksinen	-10.6781
▁hölmö	-10.6781
▁myrsky	-10.6781
▁Vanhempi	-10.6781
▁henkensä	-10.6781
▁vastapäätä	-10.6782
▁musiiki	-10.6782
▁kasvo	-10.6782
▁aalto	-10.6782
▁täyteläis	-10.6782
▁päästyään	-10.6782
▁Yamato	-10.6782
▁alfa	-10.6782
▁ympäriltä	-10.6786
▁Nuori	-10.6788
▁sopivan	-10.6791
▁ajattelematta	-10.6791
▁tulleen	-10.6795
▁herättää	-10.6795
keli	-10.6802
▁loppua	-10.6804
▁muitakin	-10.6806
▁kosketusta	-10.6807
▁tulet	-10.681
▁selkeä	-10.6816
lliseen	-10.6821
▁hidasta	-10.6827
Ruiza	-10.683
▁puheenaihe	-10.683
▁Sydän	-10.6831
▁nahkatakki	-10.6831
Onhan	-10.6831
▁heittäyty	-10.6833
▁rauhoitta	-10.6835
▁aiheutti	-10.6836
▁yrittäessä	-10.6836
▁käytävälle	-10.6842
▁kiinnitti	-10.6844
▁aikoo	-10.6856
▁julma	-10.686
▁naisten	-10.6871
▁herätti	-10.6871
▁reppu	-10.6872
▁täytty	-10.6875
hall	-10.6875
▁Kirsikan	-10.6879
▁zappiksen	-10.6879
▁fyysis	-10.6879
▁pehmei	-10.6879
▁millainen	-10.6879
tyttö	-10.6881
▁riensi	-10.6883
puolella	-10.6884
▁helpottu	-10.6888
▁palautta	-10.6889
▁toverinsa	-10.6893
▁kotiinsa	-10.6896
▁löydä	-10.6899
▁Car	-10.69
▁kokeilla	-10.6901
puuska	-10.6908
▁reilu	-10.6909
eissä	-10.6917
▁herkkä	-10.692
▁muki	-10.6921
▁Tuntee	-10.6926
▁tyytyi	-10.6928
▁varmisti	-10.6929
▁Grell	-10.6929
▁ahdista	-10.6929
▁mietit	-10.693
lakan	-10.693
▁huitaisi	-10.6931
▁ajattelemaan	-10.6931
▁entise	-10.6932
▁naula	-10.6932
▁epäile	-10.6932
▁hampaat	-10.6933
ellään	-10.6935
atto	-10.694
▁ilmestynyt	-10.6941
▁vaarallise	-10.6943
▁pistää	-10.6947
▁Finn	-10.6947
Taju	-10.6951
▁etsien	-10.6952
▁Sil	-10.6957
▁kli	-10.6958
▁luoja	-10.6962
▁asuu	-10.6964
▁Pah	-10.6969
▁menesty	-10.6971
▁koulussa	-10.6971
kerro	-10.6973
▁pelokkaa	-10.6975
▁Jimin	-10.6978
▁sunnuntai	-10.6978
▁tärisevä	-10.6978
▁puutarha	-10.6978
▁pidemmälle	-10.6978
▁muodostu	-10.698
▁Ala	-10.6981
elty	-10.6981
▁Hiko	-10.6981
▁jonkinlainen	-10.6984
▁kirjoittaa	-10.6985
▁hämmentynyt	-10.6986
▁nojaten	-10.6987
▁lap	-10.699
▁kuollee	-10.6991
uksissa	-10.6993
▁ollessaan	-10.6997
▁Piene	-10.6997
▁koura	-10.6997
tuneita	-10.7
ahtaen	-10.7017
▁leikkiä	-10.7018
▁tietävät	-10.7019
▁Bunnie	-10.7028
▁myrky	-10.7028
▁Kasvo	-10.7028
▁yllätys	-10.7028
▁hopea	-10.703
akti	-10.7031
▁Jotenkin	-10.7036
Minkä	-10.7038
Vaan	-10.7038
auto	-10.7043
▁otettaan	-10.7053
▁käsillään	-10.7053
▁nojaamaan	-10.7055
▁aste	-10.7057
▁Muu	-10.7058
▁sivulle	-10.7058
▁lähettä	-10.7059
Ann	-10.7063
00	-10.7073
▁roikkui	-10.7077
▁katkera	-10.7077
▁hyökkäykse	-10.7078
▁palvelija	-10.7078
▁ylemmäs	-10.7078
▁normaalisti	-10.7079
▁helpottuneena	-10.7079
▁Roger	-10.7079
Elä	-10.7079
▁muovi	-10.708
▁vaivautunut	-10.7081
▁mafiamies	-10.7081
▁kulkeva	-10.7081
▁mahdollisuutta	-10.7081
▁aine	-10.7081
▁hoitaja	-10.7083
▁kalpeampi	-10.7087
▁Severusta	-10.7089
▁tekemässä	-10.709
▁pesu	-10.7092
▁elämässään	-10.7094
▁erityis	-10.7096
▁kaivaa	-10.71
▁kuri	-10.7105
isuutensa	-10.7109
▁kaunista	-10.7112
▁Suo	-10.7115
▁pelastaa	-10.7115
▁osasto	-10.7126
▁Hiljaisuus	-10.7128
▁kynttilä	-10.7128
▁laihempi	-10.7128
▁useampi	-10.7128
kontakti	-10.7128
▁kömpi	-10.7129
▁tauko	-10.7129
▁puvun	-10.7129
▁tunnetta	-10.713
▁naiset	-10.713
▁toimeen	-10.7131
▁Carter	-10.7131
▁säästä	-10.7133
▁liikahti	-10.7133
AA	-10.7143
kaupan	-10.7144
▁suukko	-10.7153
▁suuntaa	-10.7166
▁tota	-10.7167
▁lohdut	-10.7169
udessa	-10.7169
ight	-10.717
▁otsalle	-10.7171
▁Nami	-10.7175
▁kasvoista	-10.7176
▁saattoivat	-10.7177
▁Victor	-10.7178
▁ähkäisi	-10.7178
▁potkaisi	-10.7179
▁kyyneleitä	-10.7179
▁rysty	-10.7179
▁valehtele	-10.7179
▁Yutaka	-10.7179
▁viikolla	-10.7179
▁typerää	-10.7182
▁puhdas	-10.7184
▁alleen	-10.7188
▁tapahtumista	-10.7189
yytensä	-10.7189
▁vaisto	-10.7193
▁seisoivat	-10.7196
Siitä	-10.7198
klaani	-10.7201
Aina	-10.7203
▁juosta	-10.7203
▁minkään	-10.7204
▁vikaa	-10.7205
▁tahtonut	-10.7206
aine	-10.7207
ET	-10.7209
▁Silmä	-10.7212
▁maha	-10.7213
▁Epä	-10.7213
▁poikaansa	-10.722
▁tääl	-10.7224
▁Näy	-10.7224
llisten	-10.7226
mänsä	-10.7226
▁ärsyttä	-10.7228
▁puhelimeen	-10.7229
▁pelätä	-10.723
▁kaapista	-10.723
▁ovikello	-10.7231
▁raottu	-10.7231
▁talvi	-10.7232
▁tapahtumia	-10.7233
▁väänty	-10.7238
▁toiselta	-10.724
▁rohke	-10.7243
▁silkki	-10.7245
▁huudo	-10.7246
▁vihaise	-10.7247
▁pyöritteli	-10.7249
▁ranne	-10.7249
▁raju	-10.7252
▁hyvällä	-10.7254
▁loppujen	-10.7257
▁Menee	-10.7261
mur	-10.7266
▁Puhe	-10.7267
▁sivuun	-10.7273
▁epätoivoise	-10.7276
▁kylpyhuone	-10.7279
▁komenta	-10.7279
▁peremmälle	-10.728
▁Kolme	-10.7281
▁Shou	-10.7281
▁työntekijä	-10.7281
▁Tästä	-10.7281
▁sivummalle	-10.7281
▁kauhuissaan	-10.7282
▁lista	-10.7282
▁hymyilemään	-10.729
▁sisare	-10.7293
▁liikkumaan	-10.7293
▁fl	-10.7293
▁voisimme	-10.7293
▁asettaa	-10.7297
pentu	-10.7299
bb	-10.7306
▁vihollisen	-10.7322
udelle	-10.733
▁Natasha	-10.7332
▁ketju	-10.7332
Lopeta	-10.7333
▁hakkaa	-10.7334
▁menneet	-10.7334
▁tokaisee	-10.7335
▁toivoen	-10.7336
uduin	-10.7336
▁Mustatukkainen	-10.7338
▁oltiin	-10.7338
▁tarpeen	-10.734
▁Yeolin	-10.734
▁aikoihin	-10.7341
ttomuus	-10.7346
▁hukku	-10.735
▁jutteli	-10.7352
▁suukot	-10.7352
▁pakkas	-10.7352
▁kasvanut	-10.7355
▁Katsoo	-10.7359
kulho	-10.736
öistä	-10.7361
tetun	-10.7366
▁märä	-10.7367
▁nyki	-10.737
▁kiinnostaa	-10.7373
ttäjä	-10.7374
ula	-10.7378
▁Eliakselta	-10.7383
▁kävellen	-10.7383
▁kömpelö	-10.7383
▁Lahtisen	-10.7383
▁Miehet	-10.7383
▁sankari	-10.7383
▁Sasuke	-10.7383
▁lehden	-10.7383
▁Minua	-10.7385
▁Jostain	-10.7386
▁nurkkaan	-10.7399
▁pitäisikö	-10.74
▁loukkaantunut	-10.7401
▁tunkeutu	-10.7404
▁tajuta	-10.741
▁oletko	-10.7413
▁onnistuu	-10.7425
▁kääntä	-10.7426
▁tuskaa	-10.7428
▁usei	-10.7431
▁Nagi	-10.7434
▁Kuitenkin	-10.7435
▁yhdeksä	-10.7435
▁kypärä	-10.7435
Challa	-10.7435
▁sulje	-10.7435
▁puristaen	-10.7436
▁mahdollisuuden	-10.7436
▁hyppää	-10.7439
▁Suomi	-10.7441
▁oikeaan	-10.7443
▁sormillaan	-10.7449
▁hyökät	-10.745
▁kallis	-10.745
▁tuima	-10.7451
htelu	-10.7451
▁Gil	-10.7454
Vaikka	-10.7456
▁kaataa	-10.7458
▁katsomassa	-10.7463
merki	-10.7464
▁viemään	-10.7465
▁ihmisistä	-10.7467
▁vapaaksi	-10.7472
▁läheltä	-10.7474
▁villa	-10.7481
kulma	-10.7482
▁tehdessä	-10.7484
▁räjähtä	-10.7487
▁uskalsi	-10.7487
▁ammatti	-10.7487
▁Robin	-10.7487
▁arveli	-10.7489
▁rasit	-10.749
▁pahemmin	-10.749
▁aiheuttaa	-10.749
▁kynä	-10.7492
▁olut	-10.7493
▁lomassa	-10.7493
▁kallista	-10.7494
▁lukee	-10.7494
▁kääntymään	-10.7496
▁siirtä	-10.7498
▁katseita	-10.7499
▁mahd	-10.7501
▁vaimea	-10.7504
▁saatuaan	-10.7505
▁suuret	-10.7514
▁vakuuttaa	-10.7514
▁Mark	-10.7516
▁taikaministeri	-10.7517
▁tuolille	-10.7519
▁ranta	-10.752
▁tulija	-10.752
▁vääri	-10.7523
▁samanlaise	-10.7526
▁Kerro	-10.7529
▁hämär	-10.7531
▁rintaansa	-10.7531
▁Nyökkää	-10.7539
▁tarkoitettu	-10.7539
▁selvittä	-10.7541
▁henkivartijoi	-10.7545
▁rivi	-10.7546
▁tuikki	-10.7547
▁Am	-10.7558
▁Seuraavana	-10.7559
asema	-10.7561
▁kääntäe	-10.7562
▁harma	-10.7562
▁leviä	-10.7562
▁kiitti	-10.7575
▁antautu	-10.7589
▁Onimaru	-10.7592
▁käsivarresta	-10.7592
▁viehättävä	-10.7594
▁nenäänsä	-10.7595
▁myöhässä	-10.7596
▁Kagen	-10.7597
aikaa	-10.7598
▁luulen	-10.7601
himo	-10.7602
tekni	-10.7605
▁Mikään	-10.7606
▁rintakehälle	-10.7608
▁vanhaa	-10.7615
ttelua	-10.7617
▁ihastunut	-10.7617
▁synny	-10.7624
htaisi	-10.7624
▁Mitään	-10.7625
▁Tiedän	-10.7627
▁käheä	-10.7628
▁väittä	-10.7634
▁nostaen	-10.7642
▁vanhemmat	-10.7645
▁Lestrade	-10.7645
▁osto	-10.7645
▁Brian	-10.7645
▁mustasukka	-10.7646
▁vaimonsa	-10.7646
patja	-10.7648
▁kätke	-10.7648
▁jottei	-10.7649
▁kaltaise	-10.7652
▁tiede	-10.7655
▁kului	-10.7657
▁ohjaa	-10.7657
▁kuulemaansa	-10.7657
▁rypist	-10.7659
laus	-10.766
▁päädy	-10.7662
▁punaiset	-10.7675
ander	-10.7676
▁kirjaa	-10.7678
jalka	-10.7681
▁susi	-10.7685
Minne	-10.7697
▁Kabuto	-10.7698
▁useammin	-10.7698
▁Alex	-10.7698
▁posket	-10.7698
▁hampaansa	-10.7698
▁huonekalu	-10.7698
▁Scott	-10.7698
▁Ensin	-10.7698
▁Kallio	-10.7699
▁siirtyivät	-10.77
▁näkyvä	-10.77
▁lämmittä	-10.7701
▁suurempi	-10.7702
Luulin	-10.7703
jille	-10.7703
▁uteliai	-10.7703
▁luonte	-10.7705
▁varaan	-10.7705
▁eka	-10.7709
▁päätellä	-10.7715
▁lauseen	-10.7718
So	-10.772
▁tovin	-10.7723
▁koski	-10.7727
▁kertaakaan	-10.7728
▁yski	-10.773
▁laittanut	-10.7732
▁ehtisi	-10.7734
▁taivas	-10.7737
Tar	-10.7738
▁yhtäkään	-10.775
▁Burutendou	-10.7752
▁Ensimmäise	-10.7752
▁flirttail	-10.7752
▁pikkuhiljaa	-10.7752
▁Kamijo	-10.7752
▁tappelu	-10.7752
▁muuhun	-10.7752
▁nurkassa	-10.7753
Sori	-10.7759
paidan	-10.7761
käytävä	-10.7761
▁poskia	-10.7762
▁isäänsä	-10.7762
▁vierailu	-10.7766
▁hiuksista	-10.7767
htoi	-10.7768
tiä	-10.7778
▁kylki	-10.7784
▁lant	-10.7787
▁kysymään	-10.7787
tteri	-10.7792
▁olkaa	-10.7792
Ymmärrän	-10.7795
▁nojautu	-10.7799
Hitto	-10.7803
▁silmäkulma	-10.7804
▁nyyhky	-10.7805
▁toivottavasti	-10.7805
▁pidellen	-10.7806
▁asuntoon	-10.7806
▁irrottautu	-10.7806
▁hiljaisuudessa	-10.7807
▁raivostu	-10.7809
▁luola	-10.7809
▁jonkinlaista	-10.7809
▁hengitystään	-10.781
laatu	-10.7811
▁sytyttä	-10.7813
▁epäuskoisena	-10.7813
▁itselleni	-10.7817
▁mustia	-10.7817
▁seurannut	-10.7817
▁viettänyt	-10.7818
mistään	-10.782
Onks	-10.7822
▁löytyy	-10.7824
lahja	-10.7827
▁Jopa	-10.7829
▁hammas	-10.783
▁tuntematon	-10.7831
▁oltu	-10.7832
stellut	-10.7835
▁alkaessa	-10.7836
▁vaativasti	-10.7837
▁pysyvä	-10.7838
▁leiv	-10.7839
▁sinänsä	-10.784
▁tosiaankaan	-10.7844
▁kolmannen	-10.7846
Isä	-10.7847
▁tekni	-10.7854
pöydässä	-10.7859
▁molempien	-10.7859
▁Ithil	-10.7859
▁levottoma	-10.786
▁Tanaka	-10.786
▁rohkea	-10.7864
pohja	-10.7872
▁nuole	-10.7873
▁tutustua	-10.7874
▁Hilla	-10.7876
▁liikutta	-10.7877
▁paljastaen	-10.788
▁tullessa	-10.7882
▁joitakin	-10.7882
▁pohdi	-10.7883
▁vieraita	-10.7884
▁painava	-10.7884
▁housuja	-10.7895
llisiä	-10.7898
▁kakkosmiehen	-10.7899
▁vietti	-10.7903
▁Huomaa	-10.7904
Näytä	-10.7911
▁askelta	-10.7912
▁epämukava	-10.7914
▁ylipäätään	-10.7914
▁vauhdi	-10.7914
▁kämppä	-10.7914
▁jumala	-10.7914
▁ketä	-10.7915
▁työtoveri	-10.7917
▁käytännössä	-10.7918
▁meteli	-10.792
▁liemi	-10.7921
▁uteliaana	-10.7923
▁irrotti	-10.7923
johtaja	-10.7924
vinaan	-10.7925
▁musiikkia	-10.7934
Meillä	-10.7939
▁naiselle	-10.7939
▁kykenisi	-10.7941
ydestä	-10.7941
▁riste	-10.7941
▁pysähtyy	-10.7945
▁Pala	-10.7952
▁paluu	-10.7957
▁omansa	-10.796
▁pär	-10.796
vuoren	-10.7961
▁vaadi	-10.7963
Voisit	-10.7963
▁toiset	-10.7964
▁pyöreä	-10.7968
▁kurkusta	-10.7971
▁kylpy	-10.7979
KA	-10.7981
▁ajatusta	-10.7985
▁vetänyt	-10.7986
Saa	-10.7988
▁viski	-10.7989
▁jäädessä	-10.799
▁valtasi	-10.7991
istessa	-10.7994
▁alkuun	-10.7999
▁kaukaa	-10.8001
▁meren	-10.8008
▁pehmeää	-10.8019
▁torni	-10.8023
▁takaraivo	-10.8023
▁yläkertaan	-10.8023
▁fiksu	-10.8023
▁päätöksen	-10.8023
▁ympäriinsä	-10.8027
▁itseäsi	-10.8027
▁yrittivät	-10.803
▁kapei	-10.8033
kappale	-10.8036
▁hengityksensä	-10.8036
Mana	-10.8036
▁keskittynyt	-10.8038
▁vetämään	-10.804
▁kirjoitti	-10.8043
▁erilaise	-10.8043
▁varalta	-10.8046
▁Ry	-10.8049
▁autoon	-10.805
▁uhma	-10.8058
▁Puhu	-10.8058
▁kävelevä	-10.806
▁mestari	-10.8061
▁kuuntelee	-10.8062
▁tietoinen	-10.8062
▁iholle	-10.8069
▁Yoongi	-10.8079
▁romanttis	-10.8079
▁räpytteli	-10.8079
▁löytäisi	-10.8079
▁sillon	-10.8079
▁sattu	-10.8082
▁sauna	-10.8089
▁ministeri	-10.8089
▁tup	-10.8092
▁todellise	-10.8093
muoto	-10.8093
▁pitäis	-10.8096
▁käheästi	-10.8097
▁miu	-10.8097
▁kuulemaan	-10.8098
ikäinen	-10.8101
juoma	-10.8102
ttelevä	-10.8103
▁rapsut	-10.811
▁tappanut	-10.8112
▁muistu	-10.8116
▁huohot	-10.8125
ttömän	-10.8127
▁Jää	-10.8127
▁tapaus	-10.813
▁tiensä	-10.8131
▁Valandil	-10.8134
▁pikemminkin	-10.8134
▁höyry	-10.8134
▁baaritiski	-10.8134
▁kivulia	-10.8134
▁päässeet	-10.8134
▁kulkemaan	-10.8134
▁kivääri	-10.8134
▁selvitä	-10.8135
▁vakavasti	-10.8136
▁peloissaan	-10.8137
▁Colin	-10.8138
▁valitsi	-10.8138
▁Loppu	-10.8138
llisuutta	-10.8139
▁parantaja	-10.814
▁etäisyy	-10.8143
▁arvasi	-10.8149
▁kiittää	-10.8152
▁käsissä	-10.8154
mustahiuks	-10.8154
▁napit	-10.8158
stetty	-10.8158
▁uhkaava	-10.8159
▁neito	-10.8166
▁yllättynee	-10.8173
misensa	-10.8177
▁syrjä	-10.8179
▁aseiden	-10.8182
▁Theodore	-10.819
▁Torkkeli	-10.819
▁valehteli	-10.819
▁häipy	-10.819
▁hakemassa	-10.819
▁Logan	-10.819
▁pelästy	-10.8191
kenttä	-10.8193
▁tyydy	-10.8198
▁Heillä	-10.8199
▁uhkaavasti	-10.8208
Miks	-10.8209
▁hirveästi	-10.8221
▁kävivät	-10.8221
ttäisiin	-10.8223
▁pihalla	-10.8228
Minas	-10.823
▁tappamaan	-10.8235
▁kihelmöi	-10.8246
Pitäisikö	-10.8246
Teidän	-10.8247
▁ovela	-10.8247
▁silmäkulmastaan	-10.825
▁lahjo	-10.8251
▁mietteliäänä	-10.8254
▁levitti	-10.8255
▁nauramaan	-10.8258
▁oikeus	-10.8265
▁askelia	-10.8266
▁alkavat	-10.8271
▁ilmettä	-10.8273
▁lopeta	-10.8274
▁laaj	-10.8277
▁juonut	-10.8282
▁musiikki	-10.8282
▁muuttuivat	-10.8284
▁pakoon	-10.8289
▁täytyisi	-10.83
▁liikkuivat	-10.8301
▁ryppy	-10.8303
▁Hauhia	-10.8303
▁kulmiensa	-10.8303
▁Tuijot	-10.8303
▁kiinnostuneena	-10.8305
▁Pikku	-10.8308
▁rauhallinen	-10.8309
▁kyseise	-10.8311
▁kohtasi	-10.8312
▁todennäkö	-10.8313
harmaa	-10.8313
▁suunnat	-10.8314
▁kurkisti	-10.8316
▁helpompi	-10.8325
▁ääntään	-10.833
▁raivosta	-10.8331
▁kerrallaan	-10.8333
▁jähmetty	-10.8335
tukkainen	-10.8343
▁hevosen	-10.8345
▁kerrokseen	-10.8359
Nähdään	-10.8359
▁Tunsin	-10.836
▁Ze	-10.8361
▁tällaisi	-10.8361
▁rakkauden	-10.8361
▁tyttöystävä	-10.8361
▁punertava	-10.8362
▁nautinto	-10.8363
▁kauempaa	-10.8364
▁renno	-10.837
▁haukku	-10.8373
Lupaa	-10.8374
▁hädin	-10.8374
merkki	-10.8375
▁huija	-10.8375
▁aula	-10.8375
▁pysähtymään	-10.8376
▁Ruskeat	-10.8376
▁vieraan	-10.8381
▁mielenkiinto	-10.839
pakka	-10.8405
▁saatu	-10.8408
ahtaessa	-10.8412
▁portaat	-10.8415
▁keskeltä	-10.8417
▁irvistä	-10.8417
▁yleisö	-10.8417
▁Kalpea	-10.8417
▁Huokaisee	-10.8418
▁lepäsi	-10.8419
▁rooli	-10.8421
▁ohue	-10.8423
▁kutsuttu	-10.8427
▁kiskoi	-10.8428
▁Meillä	-10.8428
▁kahteen	-10.8431
▁tarttua	-10.8431
▁seikka	-10.8436
vier	-10.8438
▁henno	-10.8442
ryhmä	-10.8446
▁hymynsä	-10.8449
▁kulje	-10.845
▁kankaan	-10.8454
▁päältään	-10.8455
▁otteen	-10.8462
▁vapaut	-10.8463
▁odota	-10.8469
▁epäilevä	-10.8472
▁sumu	-10.8472
EI	-10.8473
▁lämpimästi	-10.8474
▁aavistustakaan	-10.8474
▁moottori	-10.8474
▁Kerran	-10.8474
▁Merlin	-10.8474
▁liikkeet	-10.8474
▁kaikilla	-10.8475
Sai	-10.8475
▁kauhistuneena	-10.8476
▁Eipä	-10.8482
▁omille	-10.8483
Ve	-10.8484
▁tehden	-10.8484
▁Nuuskamuikkunen	-10.8487
▁talve	-10.8489
▁kannalta	-10.8489
▁Astu	-10.8492
▁maistui	-10.8495
▁katsomatta	-10.85
▁vankila	-10.8501
▁katseesta	-10.8501
▁meinaa	-10.8503
Täällä	-10.8504
▁olevasta	-10.851
paikan	-10.8515
▁ikävää	-10.8515
▁lyhyen	-10.8527
▁lukemaan	-10.8531
▁Lucius	-10.8532
▁tiehensä	-10.8532
▁kurtussa	-10.8532
▁Naurahtaa	-10.8533
▁erityisemmin	-10.8533
fic	-10.8534
▁silmille	-10.8535
▁pomo	-10.8538
▁saapuu	-10.8542
▁kainaloonsa	-10.8542
▁toistaiseksi	-10.8543
▁kaikkeen	-10.8543
▁johtajaansa	-10.8559
▁naamaa	-10.8562
utuva	-10.8571
Hienoa	-10.8574
lääke	-10.8574
▁maltta	-10.8576
▁rep	-10.8576
Oo	-10.8578
stoon	-10.8578
Hmm	-10.8583
▁säpsäh	-10.8583
▁edestakaisin	-10.859
▁inkvisiittori	-10.859
▁intohimo	-10.859
▁unohti	-10.859
▁liikkeitä	-10.859
▁tekevät	-10.859
▁tapahtuneesta	-10.8591
Tietysti	-10.8591
▁tottele	-10.8596
▁lintu	-10.8597
▁luokseni	-10.8603
▁älähti	-10.8605
▁kallii	-10.8609
Itse	-10.8609
tervehdyks	-10.8611
▁katsele	-10.8612
▁epätoivoisesti	-10.8617
for	-10.8618
▁vetoa	-10.8625
▁She	-10.863
▁törmäsi	-10.8631
▁äänessä	-10.8632
▁sotke	-10.8638
▁hämmennyksestä	-10.8639
Eihän	-10.8644
▁tuore	-10.8646
▁totu	-10.8648
▁Voldemort	-10.8649
▁Jiraiya	-10.8649
▁tarvetta	-10.8649
▁viuhka	-10.8649
mättömän	-10.8649
▁opiskelu	-10.8649
karva	-10.865
▁korjasi	-10.865
miehet	-10.8651
▁nänni	-10.8651
▁huohotti	-10.8656
▁unessa	-10.8658
▁näppä	-10.8665
kumppani	-10.8668
▁paljastui	-10.8668
▁sopinut	-10.867
palvelu	-10.867
puolelta	-10.8672
▁nuoli	-10.8673
uudelta	-10.8675
▁tunteista	-10.8677
▁syöksyi	-10.8678
▁peto	-10.8681
mmalle	-10.8684
▁olevalle	-10.8684
▁voittaa	-10.8701
▁aseensa	-10.8701
▁tuollainen	-10.8704
Kävi	-10.8704
▁kyljelleen	-10.8707
▁kiihottu	-10.8707
kruunu	-10.8707
Saanko	-10.8708
▁lähempänä	-10.871
▁onnellisi	-10.8711
▁eläimen	-10.8712
▁aukea	-10.8713
▁jokaisella	-10.8714
▁Andro	-10.872
▁rauta	-10.8723
Toivo	-10.8727
▁varmista	-10.8729
maisesti	-10.8733
▁pane	-10.8735
▁ilmeestä	-10.8736
▁nimeltä	-10.8742
▁paremmalta	-10.8742
▁itsellään	-10.8747
▁for	-10.8748
▁tutka	-10.875
▁uskoo	-10.8752
ÄN	-10.8753
▁perille	-10.8761
▁löyty	-10.8762
▁tasolla	-10.8762
▁Shorter	-10.8766
▁kannoillaan	-10.8767
▁työskentele	-10.8767
▁silmillään	-10.8767
▁suoristautui	-10.8767
▁erehty	-10.8767
▁äkisti	-10.8767
▁suunnilleen	-10.8767
▁asunnon	-10.8767
▁Jongin	-10.8767
▁merkille	-10.8767
▁aikaisin	-10.8769
▁silmäni	-10.8769
▁Darui	-10.8769
▁ikuisesti	-10.8769
▁kauhee	-10.877
▁tarjota	-10.8772
▁tupakan	-10.8773
▁sulhas	-10.8773
▁rakkaan	-10.8779
Oliko	-10.8788
▁pelosta	-10.8789
▁fe	-10.8789
▁päätynyt	-10.8794
mattomia	-10.8797
▁läheise	-10.8797
ystävä	-10.8803
pätkä	-10.8807
▁bile	-10.881
miehiä	-10.8811
▁jähmettyi	-10.8812
eläime	-10.8813
▁Ensimmäinen	-10.8826
▁pöydästä	-10.8826
▁luullut	-10.8826
▁Kyyneleet	-10.8826
▁valahta	-10.8826
▁kerrostalo	-10.8826
Lähde	-10.8828
▁vartija	-10.8828
▁esimiehensä	-10.8828
▁Helvetti	-10.8832
▁semmo	-10.8834
▁kolmi	-10.8834
▁luoti	-10.8836
▁suloise	-10.8836
▁suoritta	-10.8836
tettuaan	-10.884
▁lautasen	-10.8846
▁kiirettä	-10.8848
▁sävel	-10.885
▁alistu	-10.8858
▁viimeistä	-10.8861
▁huivi	-10.8868
▁levy	-10.8885
▁suinkaan	-10.8886
asennossa	-10.8887
▁seinusta	-10.8888
▁Aja	-10.8889
▁huoneisto	-10.889
▁puheeseen	-10.8892
▁reissu	-10.8892
▁kikat	-10.8894
uudella	-10.8896
▁raskai	-10.8897
▁vääntä	-10.8901
▁poikia	-10.8902
▁suihkuun	-10.8903
▁käänny	-10.8905
▁suhde	-10.891
ruoka	-10.8914
▁Paina	-10.8915
▁syöksy	-10.8917
▁selviäisi	-10.8918
▁kakku	-10.8921
▁vitu	-10.8922
▁Valitettavasti	-10.8922
▁muuttanut	-10.8928
▁vieden	-10.8934
▁vapautta	-10.8936
▁sairaalaan	-10.8937
▁moneen	-10.8942
▁turvaan	-10.8945
▁kaartui	-10.8945
ukselta	-10.8945
▁Kahlesalpa	-10.8946
▁ulkopuolelle	-10.8946
Luuletko	-10.8946
▁vanhemmi	-10.8946
▁Asuma	-10.8946
▁pienellä	-10.8946
▁Tätä	-10.8947
nnat	-10.8947
▁ulkopuolis	-10.8949
▁puhelinta	-10.8951
▁uudet	-10.8952
▁tipa	-10.8952
▁lyödä	-10.8952
▁suihkussa	-10.8953
▁ikävästi	-10.8957
▁hakkasi	-10.8959
ttavissa	-10.8959
▁erilainen	-10.896
▁Toisen	-10.8964
▁puhuttu	-10.8973
▁puski	-10.8975
▁kurista	-10.8978
Mukava	-10.8979
▁lukio	-10.8984
▁Täällä	-10.8989
▁ajatuksiaan	-10.8993
▁taistella	-10.9008
köön	-10.9009
Enkä	-10.901
▁helpompaa	-10.9012
▁jatkaen	-10.9022
▁valitti	-10.9023
▁Heti	-10.9029
▁voimasta	-10.9029
▁puhuivat	-10.9032
▁vahvasti	-10.9033
▁esitti	-10.9033
▁unohtamaan	-10.9038
paperi	-10.9045
▁tienneet	-10.9047
▁kumo	-10.9058
▁omissa	-10.9058
▁vaalein	-10.9061
▁Boromir	-10.9068
▁Taatelinruskea	-10.9068
▁Timothy	-10.9068
▁Tilanne	-10.9068
▁kauniisti	-10.9068
▁puhumattakaan	-10.9068
▁ankara	-10.9068
▁Kuuntelee	-10.9068
▁nuolaisi	-10.9068
▁mentävä	-10.9069
▁myöhäistä	-10.9071
▁video	-10.9073
▁riittänyt	-10.9074
▁Välillä	-10.9075
▁erottu	-10.9076
▁tilassa	-10.9079
▁vaelta	-10.9082
▁välitti	-10.9084
▁Mikäli	-10.9084
▁kutsuu	-10.9084
▁toimimaan	-10.9089
▁jaksaisi	-10.909
loitsu	-10.9092
▁ymmärtämään	-10.9094
▁itsessään	-10.9099
▁merkitse	-10.9101
▁kietoutui	-10.9102
▁antama	-10.9105
▁vähällä	-10.9107
▁roska	-10.9117
▁naisia	-10.9121
parka	-10.9122
▁työnsä	-10.9122
▁Huulet	-10.9129
▁hämillään	-10.9129
▁Genji	-10.9129
▁paistoi	-10.913
▁ruskeahiuksisen	-10.913
▁mustatukan	-10.913
▁tarpeellis	-10.913
▁sotilaan	-10.913
▁serkku	-10.9131
▁hymyään	-10.9134
▁ruma	-10.9137
▁sotilaita	-10.9137
▁uutisia	-10.9139
▁palkka	-10.9142
▁käänne	-10.9143
▁sih	-10.9151
▁tajuttoma	-10.9158
kasvoinen	-10.916
▁töistä	-10.9163
▁pitkäksi	-10.9167
▁mummi	-10.9169
▁Erik	-10.9169
▁syönyt	-10.9174
▁takas	-10.9182
Että	-10.9189
▁Edes	-10.919
▁McGee	-10.9191
▁siirtyessä	-10.9191
▁tehtävää	-10.9191
▁Oonoki	-10.9191
▁mielelläni	-10.9191
▁aikuinen	-10.9191
▁tahdissa	-10.9191
▁huppari	-10.9191
▁rutisti	-10.9191
▁that	-10.9191
▁jotakuta	-10.9191
▁toime	-10.9193
▁kirjoja	-10.9196
▁sormellaan	-10.9199
▁vaatteensa	-10.92
▁käyneet	-10.9204
▁pimeässä	-10.9204
kohdan	-10.9217
▁piiloon	-10.922
▁jalkojaan	-10.9221
▁oiva	-10.9237
▁valinta	-10.9241
▁taput	-10.9242
▁lähtöä	-10.9251
▁erä	-10.9253
▁virnuillen	-10.9253
▁Paitsi	-10.9253
▁epämääräise	-10.9253
▁väkeä	-10.9254
ittain	-10.9254
▁korvansa	-10.9256
▁laajenivat	-10.9257
Terve	-10.9258
▁pelk	-10.9259
▁määrin	-10.9259
▁räpäyt	-10.9262
▁kaikkialla	-10.9264
▁sanottavaa	-10.9265
▁löytynyt	-10.9265
▁helpottunut	-10.927
▁käytävällä	-10.9273
▁näkyy	-10.9276
▁kipeästi	-10.9287
▁Koti	-10.9293
▁suoj	-10.9295
▁vanhoja	-10.9295
▁kainalo	-10.9298
▁käyttämään	-10.93
▁vuodet	-10.9301
▁nuorukais	-10.9303
▁Br	-10.9303
▁nähty	-10.9309
▁sotilai	-10.9313
▁kädestään	-10.9314
▁Kukkamaaria	-10.9315
▁Pidge	-10.9315
▁alahuulta	-10.9315
▁Suudelma	-10.9315
▁tahtomattaan	-10.9315
▁otteeseen	-10.9316
▁ohjei	-10.9316
▁sieväkasvoi	-10.9316
▁livahta	-10.9317
▁korjata	-10.9317
▁pysäytti	-10.9318
▁selvinnyt	-10.9318
▁kortti	-10.9324
UN	-10.9325
▁hapuil	-10.9328
▁kulmaansa	-10.9328
▁kivahti	-10.9331
▁perillä	-10.9332
▁mekko	-10.9338
▁katsellessaan	-10.9339
kilpailu	-10.9345
▁ajatuksesta	-10.9349
▁suutu	-10.9353
▁Auto	-10.9354
▁toimiva	-10.9355
▁punaista	-10.9359
▁jännittynee	-10.9362
▁pysyy	-10.9377
▁Audrey	-10.9378
▁Robbie	-10.9378
▁hätkähtämään	-10.9378
▁olkapäitään	-10.9378
▁molemmin	-10.9378
▁suupieli	-10.9378
▁Maailma	-10.9378
▁hivenen	-10.9379
▁pienessä	-10.9379
Todella	-10.9381
▁kallio	-10.9381
▁viihdy	-10.9381
▁kannattaisi	-10.9382
▁Nick	-10.9386
skeankellertävät	-10.9391
Par	-10.9391
▁här	-10.9396
▁tarinoi	-10.9397
▁papereita	-10.9397
▁äänessään	-10.9398
▁Mieli	-10.9403
▁erotti	-10.9404
numero	-10.9407
Kerto	-10.9415
rauha	-10.9419
▁kasvoiltaan	-10.9424
▁she	-10.9425
▁hätäänty	-10.9438
▁Nagoya	-10.9442
▁ajatuksistaan	-10.9442
▁Nousee	-10.9442
▁aiheuttanut	-10.9442
▁henkilökohtaise	-10.9442
▁tyylikkää	-10.9443
▁sotilaiden	-10.9445
▁Za	-10.9447
▁Tiesin	-10.9453
▁kanka	-10.9454
▁lähimmä	-10.9459
▁sanottuna	-10.9462
▁näkymä	-10.9463
▁itseltään	-10.9463
▁piilossa	-10.9467
kohtauksen	-10.9472
▁Naisen	-10.9472
▁kylmi	-10.9473
▁haluta	-10.9475
▁sormiensa	-10.948
▁taivut	-10.9482
▁puheli	-10.9482
▁sanoihin	-10.9486
▁haka	-10.9488
kortti	-10.9488
ilemään	-10.9495
▁keve	-10.9501
▁äänekkää	-10.9505
▁aloilleen	-10.9505
▁harteitaan	-10.9505
▁vuoteelle	-10.9506
▁edeltä	-10.9506
▁mustatukkaise	-10.9506
▁sääntö	-10.9506
▁pakara	-10.9506
▁asioihin	-10.9507
▁hipaisi	-10.9508
▁Sehun	-10.951
▁kännykkänsä	-10.9513
▁Lupin	-10.9515
▁menevän	-10.9516
▁haluis	-10.9522
▁tiimi	-10.9523
▁koputta	-10.9524
▁Tietä	-10.9524
▁kovalla	-10.9525
väri	-10.9529
▁muuttuu	-10.9531
▁kylään	-10.9533
▁Mor	-10.9535
▁heijastu	-10.9539
ruskeasilmäinen	-10.9543
rähtää	-10.9547
▁reittä	-10.9549
▁kaks	-10.9549
▁käsittää	-10.9565
▁Kirikaze	-10.9569
▁vahinko	-10.9569
Kuulostaa	-10.9569
▁Angela	-10.957
▁vastoin	-10.957
▁raollaan	-10.957
▁tavoite	-10.9573
▁kämmenensä	-10.9574
▁suukottaa	-10.9575
▁Aluksi	-10.9575
▁avannut	-10.9581
▁ohjasi	-10.9586
▁käskenyt	-10.9589
▁jäl	-10.9591
▁syttyi	-10.9593
▁tyynesti	-10.9596
▁kuulustel	-10.9597
Herra	-10.96
▁kiima	-10.9607
▁taivasta	-10.9607
▁täydellisesti	-10.961
▁käänte	-10.9611
LA	-10.9612
▁metsään	-10.9614
▁kouri	-10.9614
▁soittanut	-10.962
Pysty	-10.962
▁jäy	-10.962
aatio	-10.9621
▁epäillä	-10.9622
▁repe	-10.9624
▁mietteliää	-10.9625
Mieti	-10.9627
▁hengästy	-10.9633
▁Atsushi	-10.9634
▁nyökäten	-10.9634
▁persoona	-10.9634
▁uppoutu	-10.9634
▁nautinnosta	-10.9634
▁Jossain	-10.9636
▁kolmikko	-10.9637
▁tarkaste	-10.9638
▁Kaksikko	-10.9641
▁pysähtynyt	-10.9652
▁kutsunut	-10.9656
tasku	-10.9666
▁sp	-10.9669
▁syvällä	-10.9671
▁osoittautui	-10.9689
▁peittämä	-10.9693
▁lämmön	-10.9699
▁rehellisesti	-10.9699
▁äskeise	-10.9699
▁keräsi	-10.9699
▁harkitse	-10.9699
▁mahdottoma	-10.9699
▁tarttunut	-10.9699
▁sidottu	-10.9699
galad	-10.9699
▁johtaji	-10.9699
▁ihoon	-10.9701
▁huippu	-10.9704
▁peukalollaan	-10.9705
▁mafiamiehe	-10.9705
▁kärry	-10.9706
▁Fuji	-10.9708
▁etäisesti	-10.9708
▁valahti	-10.9711
▁Avaa	-10.9711
ttejä	-10.9712
▁muutti	-10.9713
▁totea	-10.9714
▁lantiotaan	-10.9714
▁veljeään	-10.9718
▁Näi	-10.9718
▁mahdollisi	-10.9722
▁liekki	-10.9725
▁selvisi	-10.9725
▁tylsää	-10.9727
▁japanilaisen	-10.9727
▁kaupungissa	-10.9728
▁kantautui	-10.9728
astaanottaja	-10.9728
▁jättäisi	-10.9729
isyydestä	-10.9729
▁Hans	-10.9734
▁päivinä	-10.9735
▁oudolta	-10.9736
▁makea	-10.9738
▁hame	-10.9739
▁mitkä	-10.974
Päästä	-10.9752
▁kuiv	-10.9758
▁vaipu	-10.9762
▁Sauronin	-10.9763
lauta	-10.9763
▁Aino	-10.9763
▁Kaydel	-10.9764
▁Marcus	-10.9764
▁Tänään	-10.9764
▁Reeve	-10.9764
▁solmu	-10.9764
▁hämmentä	-10.9764
▁edellisenä	-10.9765
▁puoliso	-10.9765
▁muistuttava	-10.9765
▁paikallis	-10.9765
▁järkyty	-10.9766
▁tarjoilija	-10.9767
▁olohuoneessa	-10.9768
▁välähti	-10.977
▁nykäisi	-10.9772
▁oksenta	-10.9776
▁olkapäähän	-10.9778
▁alkavan	-10.9781
▁vaikuttava	-10.9782
▁laskeutuivat	-10.9783
▁polttaa	-10.9793
▁syyttää	-10.9798
▁keskusteluun	-10.9799
▁millaist	-10.9803
▁tutkimus	-10.9805
▁mukavasti	-10.9811
issyt	-10.9821
▁kalpeamma	-10.9821
▁tarkoituks	-10.9822
▁tietoja	-10.9826
▁lähdössä	-10.983
▁yhdestä	-10.983
▁kuiskaten	-10.983
▁kiipesi	-10.983
▁paikasta	-10.983
Tarvitse	-10.9831
▁loppuelämä	-10.9832
▁suunnittele	-10.9832
▁Stark	-10.9833
Luulen	-10.9834
▁isoisä	-10.9834
lamppu	-10.9834
ttomuutta	-10.984
▁kaikenlaista	-10.9845
▁huomaisi	-10.985
ling	-10.9856
▁aikaiseksi	-10.9857
▁liittyvä	-10.9858
▁pisto	-10.9863
uomi	-10.9864
▁salama	-10.9867
▁henkäi	-10.9869
▁pidemm	-10.9872
tekijä	-10.9873
▁suola	-10.9874
Rakastan	-10.9874
▁järjesty	-10.9877
ation	-10.9883
▁uhra	-10.9888
▁Gondori	-10.9896
▁ninjaprinsessa	-10.9896
▁perkele	-10.9896
▁siirtyä	-10.9896
▁Mairon	-10.9896
▁drink	-10.9896
▁pelasti	-10.9897
▁kohdalle	-10.9897
▁potku	-10.9902
▁nyökyt	-10.9903
▁kääntämään	-10.9904
▁kannattanut	-10.9904
▁halki	-10.9905
▁läik	-10.9906
▁lasku	-10.9906
silmäistä	-10.9908
▁huoju	-10.9909
▁lähettänyt	-10.9912
▁kupin	-10.9914
▁rennosti	-10.9917
▁pannu	-10.992
▁Viimeise	-10.9922
▁mennessään	-10.9924
▁pysyisi	-10.9945
▁farkut	-10.9963
▁myrkky	-10.9963
▁siirtynyt	-10.9963
▁Kinkaku	-10.9963
▁sisältö	-10.9963
▁kohdassa	-10.9963
▁suloinen	-10.9963
▁Joulu	-10.9963
▁kaavun	-10.9964
▁hallitsi	-10.9965
▁huikkasi	-10.9965
▁kummatkin	-10.9965
▁kosketuksesta	-10.9966
▁kuolemasta	-10.9968
▁etenkin	-10.9969
▁samanlaista	-10.9969
▁tuntuvat	-10.9971
▁kummastu	-10.9971
▁taistelemaan	-10.9977
▁kuulostanut	-10.9993
▁Seuraavaksi	-10.9995
▁nuorukaista	-10.9996
▁pommi	-11
▁ruumista	-11.0004
yksensä	-11.0006
▁lope	-11.0007
▁käyttämä	-11.0007
▁nolostu	-11.0008
▁täyte	-11.0009
▁innostunee	-11.0016
▁korvaansa	-11.0022
▁Befirn	-11.003
▁kävellyt	-11.003
▁haparoi	-11.003
▁sormukse	-11.003
▁nuorta	-11.003
ohjelma	-11.003
▁naamio	-11.0031
▁yhtenä	-11.0031
▁Asuka	-11.0031
▁sovel	-11.0031
▁nyrkkinsä	-11.0035
▁mustiin	-11.0036
▁täristen	-11.0038
▁jollekin	-11.0042
▁kuntoon	-11.0043
▁hämärässä	-11.0044
▁ruumis	-11.0047
▁opiskele	-11.0052
▁Tokion	-11.0054
▁joukkoon	-11.0058
▁asiakas	-11.0061
▁lopettamaan	-11.0061
▁sanottu	-11.0066
▁veto	-11.0076
▁onneks	-11.0079
▁Oliver	-11.0084
vojen	-11.0084
▁suorana	-11.009
▁Ihmis	-11.0093
▁kiero	-11.0097
▁hivuttautu	-11.0097
▁krapula	-11.0098
▁äärimmäise	-11.0098
▁hartioita	-11.0098
▁naamioitunut	-11.0098
▁puhalsi	-11.0098
▁suunnitellut	-11.0098
▁lukkoon	-11.0098
▁pienemmä	-11.0098
▁käsivartta	-11.0098
▁turhia	-11.0098
▁Omi	-11.0098
▁askeleita	-11.0099
▁tavoitta	-11.0099
▁Josuke	-11.0101
▁vaikene	-11.0103
kohte	-11.0108
▁likaise	-11.0109
kirjoi	-11.0112
▁murhaaja	-11.0114
▁kyyneliä	-11.0116
silm	-11.0117
▁helvetissä	-11.0119
▁metsästä	-11.0122
▁vessaan	-11.0136
joukko	-11.015
ltiin	-11.0151
▁tartte	-11.0156
▁saapuivat	-11.0164
▁yläpuolelle	-11.0166
▁kelpaa	-11.0166
▁siirtyy	-11.0166
▁Kaarna	-11.0166
▁sirpale	-11.0166
▁tällainen	-11.0166
▁huokaukse	-11.0167
▁esimerkiksi	-11.0167
▁pysähtyivät	-11.0167
▁leuan	-11.0167
▁sormus	-11.0168
▁pyri	-11.0168
▁ujutt	-11.0168
▁tarkkaavais	-11.017
▁piiloutu	-11.0172
▁Geti	-11.0172
▁pojasta	-11.0173
▁kerrottava	-11.0175
▁mutrist	-11.0186
▁Rey	-11.019
▁auttaisi	-11.0191
Niinkö	-11.0192
▁aikuiset	-11.0193
▁Ly	-11.0198
▁jalkoja	-11.0201
▁maisema	-11.0204
▁polvistui	-11.0228
▁saavansa	-11.023
▁Amandil	-11.0234
Luultavasti	-11.0234
▁Junmyeon	-11.0234
▁automaattisesti	-11.0234
▁syöksähti	-11.0234
▁Nicole	-11.0234
▁välinpitämättöm	-11.0234
▁punkkari	-11.0234
▁Uruha	-11.0234
▁velkaa	-11.0235
▁näillä	-11.0235
▁vaaleamma	-11.0237
▁kielellään	-11.0237
▁pahempaa	-11.0238
▁ranska	-11.0238
▁tappoi	-11.0238
▁aamupala	-11.0238
mmällä	-11.0239
Muut	-11.0239
▁pääsivät	-11.0241
▁tilaisuutta	-11.0242
▁surullinen	-11.0245
tunti	-11.0246
▁Blaise	-11.0256
▁Gackton	-11.0267
▁tuntema	-11.0269
▁hyppi	-11.0271
▁lava	-11.028
▁saatava	-11.0281
▁nostamaan	-11.0287
▁häkelty	-11.0294
▁alaise	-11.0302
▁asianajaja	-11.0302
▁Okuyasu	-11.0303
▁rakennuksen	-11.0303
▁seisahtu	-11.0303
▁hyökkäys	-11.0303
▁riehu	-11.0303
▁takapenk	-11.0303
▁Zaida	-11.0303
▁naureskel	-11.0303
▁varrella	-11.0303
▁kauniskasvoinen	-11.0304
▁säikäyt	-11.0304
▁pisara	-11.0304
▁olemassaolo	-11.0305
▁ärähti	-11.0305
▁käskyjä	-11.0305
▁lounas	-11.0305
▁Ihmiset	-11.0311
▁vanki	-11.0314
maksu	-11.0322
▁puolta	-11.0322
▁jättämään	-11.0324
▁huolestunee	-11.0328
▁miekan	-11.0328
▁harvinais	-11.0329
Oikeasti	-11.0333
▁häly	-11.0339
–	-11.0344
▁Raili	-11.0344
▁kävele	-11.0347
ttomaksi	-11.0348
▁poltti	-11.036
▁Syy	-11.0363
kattila	-11.0364
▁kangas	-11.0366
▁kokeile	-11.037
▁Byou	-11.0373
▁kompuroi	-11.0373
▁pantterimaisen	-11.0373
▁vetoketju	-11.0373
▁etukäteen	-11.0373
▁tukahtu	-11.0373
▁voihkaisu	-11.0373
▁sylkäis	-11.0373
▁Näky	-11.0373
▁purskahta	-11.0373
▁kehitty	-11.0375
▁totuutta	-11.0375
▁huokaisu	-11.0376
▁kangasta	-11.038
isuuteen	-11.038
▁merkin	-11.0383
▁millaise	-11.0386
▁otetta	-11.0388
▁valkoista	-11.0397
▁oikeutta	-11.0397
▁Niiden	-11.0398
▁tuskastu	-11.0398
▁vale	-11.04
teltiin	-11.0408
▁nenänsä	-11.0408
vihreä	-11.0414
▁viittoi	-11.0419
▁käytöstä	-11.0424
▁Väli	-11.0436
▁kenelle	-11.0438
EL	-11.0439
▁utelias	-11.0442
▁tarkalleen	-11.0442
▁huulten	-11.0443
▁vuokra	-11.0443
▁ilmoille	-11.0443
▁haltioi	-11.0443
▁kulkea	-11.0443
▁soitto	-11.0449
▁Elämä	-11.0451
▁luovuttaa	-11.0455
▁huora	-11.0456
▁New	-11.0457
▁kiiltävä	-11.0457
aamu	-11.0457
▁otin	-11.0458
▁haro	-11.0459
▁syntynyt	-11.046
tuoli	-11.0461
arvio	-11.0475
▁päättyi	-11.0478
▁tullessaan	-11.0486
▁tielle	-11.0498
▁tiellä	-11.0502
Do	-11.0512
▁Bertolt	-11.0513
▁Kirjanpitäjä	-11.0513
▁Nuorempi	-11.0513
▁ylävartalo	-11.0513
▁Albuksen	-11.0513
▁hyökkäsi	-11.0513
▁solmio	-11.0513
▁reunalla	-11.0514
▁Kumma	-11.0518
▁päätyy	-11.0518
▁sileä	-11.0518
osasto	-11.0518
Paljon	-11.0521
▁valaistu	-11.0522
01	-11.0522
▁kiroa	-11.0524
▁yhteistyö	-11.0526
▁näyte	-11.0528
▁tullen	-11.0532
▁taskuun	-11.0533
▁alussa	-11.0538
▁keräänty	-11.0539
▁veteen	-11.0539
▁tunteiden	-11.0542
▁peruste	-11.055
▁varasto	-11.0556
▁rakkai	-11.0558
lapsi	-11.056
skelee	-11.0565
pöydällä	-11.0568
▁osunut	-11.0581
▁kenraali	-11.0584
▁ohimennen	-11.0584
▁järkytyksestä	-11.0584
▁paikkoja	-11.0584
▁seurue	-11.0584
▁kaikkensa	-11.0584
▁tahallaan	-11.0584
▁maanantai	-11.0584
▁pieneksi	-11.0584
Älkää	-11.0584
▁yhdistä	-11.0584
▁puhutaan	-11.0584
▁monesti	-11.0584
▁Konoha	-11.0584
▁taivaalle	-11.0585
▁kokemukse	-11.0585
▁särki	-11.0586
▁annettu	-11.0586
Niinhän	-11.0588
▁pistävä	-11.0589
▁autio	-11.0589
▁aloin	-11.0591
▁helpommin	-11.0594
▁kurkkuaan	-11.0595
▁Iwa	-11.0597
▁Vili	-11.0604
▁vuorostaan	-11.0605
▁istuutue	-11.0605
▁siveli	-11.0608
▁lemmikki	-11.0612
▁suostuisi	-11.0612
▁ystävällinen	-11.0612
▁korviaan	-11.0614
▁kohtasivat	-11.0621
▁toveri	-11.0624
▁tietokoneen	-11.0629
Sinähän	-11.0633
ponine	-11.0637
▁polttava	-11.0639
▁liikkunut	-11.065
▁kaverei	-11.0654
▁George	-11.0655
▁laihemman	-11.0655
▁lohikäärme	-11.0655
Täytyy	-11.0655
▁Kotikolo	-11.0655
▁Otoya	-11.0655
▁kuultuaan	-11.0655
▁vilkaisemaan	-11.0655
▁Mikael	-11.0655
▁toisiamme	-11.0656
▁typeri	-11.0657
▁pelata	-11.0658
▁säikähti	-11.066
▁huomauttaa	-11.066
▁valuessa	-11.0661
▁valinnut	-11.0666
▁Kylmä	-11.0669
▁valaisi	-11.0673
▁tyly	-11.0674
▁lähteneet	-11.0679
Vanh	-11.0684
▁liittyy	-11.0691
▁nyrkki	-11.0693
utuneen	-11.0693
▁rientä	-11.0695
ON	-11.07
▁käsistään	-11.0707
sävy	-11.0708
▁haaste	-11.0708
mattomat	-11.0713
▁toteut	-11.0714
nnäköinen	-11.0724
Äh	-11.0726
▁Angelina	-11.0727
▁ensimmäiset	-11.0727
▁harkitsi	-11.0727
▁pettynyt	-11.0727
▁yritys	-11.0728
▁sellaisesta	-11.0728
▁oranssi	-11.0728
▁näköjään	-11.0728
▁runo	-11.0728
▁näkyvistä	-11.0729
▁pyhä	-11.073
▁aiheesta	-11.0735
▁pano	-11.0738
neestä	-11.0739
▁näykki	-11.074
▁väreet	-11.074
▁peittämään	-11.0743
▁vaimeasti	-11.0753
▁ymmärtäisi	-11.0764
▁jatkaessa	-11.0765
▁aihetta	-11.0767
▁vihaisesti	-11.0773
▁paperei	-11.0783
▁huudahdus	-11.08
▁kilometri	-11.08
▁rauhoitu	-11.08
▁omega	-11.08
▁klooni	-11.08
▁parhaimma	-11.08
▁hillitä	-11.08
▁selällään	-11.08
▁kauluspaita	-11.08
▁lauloi	-11.0801
▁York	-11.0802
▁Luoja	-11.0803
▁kavereita	-11.0803
▁laskenut	-11.0804
▁luonnollisesti	-11.0806
▁Ulkona	-11.0809
▁penkille	-11.0829
▁puristui	-11.0836
punaisi	-11.0854
▁kerroksen	-11.0855
Pää	-11.0856
▁halaukse	-11.0872
▁närkästy	-11.0873
▁Hanamiya	-11.0873
▁lepäämään	-11.0873
▁aidosti	-11.0873
▁ennestään	-11.0873
▁voihkaisi	-11.0873
▁nimenomaan	-11.0873
▁Madara	-11.0873
▁pienelle	-11.0873
▁harteille	-11.0873
▁puhalta	-11.0876
▁lähdin	-11.0879
▁nivus	-11.088
▁Kahde	-11.0885
▁koskettamaan	-11.0887
sert	-11.0891
Eiköhän	-11.0897
▁lukemi	-11.0902
▁sisarensa	-11.0906
▁tavallisesti	-11.0912
▁avaten	-11.0914
yvy	-11.0933
▁kiusoittel	-11.0946
▁Lähtee	-11.0946
▁Myöhemmin	-11.0946
▁ansaitsi	-11.0946
▁karjaisu	-11.0946
▁lysähti	-11.0946
▁Finnick	-11.0946
▁mumisee	-11.0946
▁ärsyynty	-11.0946
▁naisellise	-11.0946
▁heilautta	-11.0946
▁pitäneet	-11.0947
▁pidetty	-11.0948
▁viettelevä	-11.095
▁Uusi	-11.095
▁kolleg	-11.0951
▁suuresti	-11.0952
Haluaisin	-11.0953
▁nousten	-11.0954
▁halunneet	-11.0954
▁kaksos	-11.0956
▁Pak	-11.096
▁kampa	-11.0965
▁juttelemaan	-11.0966
▁ympäristöä	-11.0971
▁vakuutti	-11.0985
▁And	-11.0986
Puhu	-11.0996
hahmo	-11.0997
▁rypisty	-11.1001
▁seuratessa	-11.1002
ÄÄ	-11.1003
▁ympäröi	-11.1011
▁Nishikawa	-11.102
▁sielunpeilit	-11.102
▁univormu	-11.102
▁poskensa	-11.102
▁alakerra	-11.102
▁tihku	-11.1022
▁vapisi	-11.1023
▁Yli	-11.1024
▁kuiskaus	-11.1028
▁kaulukse	-11.103
▁hämmennykse	-11.1032
mmälle	-11.1034
▁ponnist	-11.1034
▁toistamiseen	-11.1035
▁pitäs	-11.1035
▁tilaisuus	-11.1042
▁sokea	-11.1047
▁ylimmä	-11.1049
Suo	-11.1049
▁linja	-11.1052
yöhön	-11.1063
▁hento	-11.1073
▁huutanut	-11.1074
▁paljo	-11.1083
▁säälittävä	-11.1089
▁Blaze	-11.1095
▁Vähitellen	-11.1095
▁pöllö	-11.1095
▁ravisteli	-11.1095
▁sosiaali	-11.1095
▁kahdesti	-11.1095
▁pojista	-11.1095
▁kenkiä	-11.1096
▁syntymäpäivä	-11.1098
▁kuski	-11.1104
▁nuorimman	-11.1104
▁metsässä	-11.111
Harmi	-11.1118
▁pukeutuneen	-11.1122
▁sada	-11.1125
▁tehtävänsä	-11.1126
▁tukena	-11.1127
▁hanki	-11.113
▁hol	-11.1133
käynti	-11.1136
▁houkutteleva	-11.1149
▁farkkujen	-11.1151
▁Viha	-11.1154
▁maski	-11.1155
▁vatsassa	-11.1158
▁eteni	-11.1162
▁aavistus	-11.117
▁Sibylla	-11.117
▁asunnossa	-11.117
▁hengittäen	-11.117
▁läksy	-11.1171
▁tekniikka	-11.1172
▁ritari	-11.1173
▁seikkailu	-11.1174
lampun	-11.1174
▁unelma	-11.1176
▁kärsimättömä	-11.1177
Per	-11.1179
▁Suurin	-11.1185
▁katujen	-11.1196
Voisin	-11.122
▁erästä	-11.1227
aihe	-11.123
▁tahtoo	-11.1236
▁helveti	-11.1242
▁Molemmat	-11.1246
▁kännykän	-11.1246
▁pimeyteen	-11.1246
▁Gaius	-11.1246
▁leikkisästi	-11.1246
▁fu	-11.1246
▁kuulleet	-11.1246
▁veitsen	-11.1247
▁silittämään	-11.1248
▁tapahtumien	-11.1249
▁löytämään	-11.125
▁Voisiko	-11.1251
▁Mielessä	-11.1253
paketin	-11.1255
▁oltava	-11.126
▁Aihe	-11.1262
kaupassa	-11.1263
▁helpottaa	-11.1268
▁Rehan	-11.1281
▁puhuttiin	-11.1293
▁äitiään	-11.1293
▁piikki	-11.1297
▁kurki	-11.1298
▁Vanha	-11.1313
▁Ruka	-11.1314
▁juttele	-11.1314
▁kainaloon	-11.1321
▁Jonathan	-11.1322
▁pettymys	-11.1322
▁treffi	-11.1322
▁Poirot	-11.1322
▁suunnitelmia	-11.1322
▁Kumpikaan	-11.1322
▁kiltisti	-11.1322
▁ärjäisi	-11.1322
▁raukea	-11.1322
▁kulkee	-11.1322
▁tyytymättömä	-11.1325
▁koputti	-11.1328
▁tuijottaessa	-11.1328
▁myöntämään	-11.1333
▁valkea	-11.1339
▁lakkasi	-11.1343
▁syntymä	-11.1351
▁liioi	-11.1355
▁epävarmana	-11.1356
▁ystävälleen	-11.1367
▁kuukau	-11.1367
▁10	-11.137
▁luonnos	-11.137
▁verenpuna	-11.1373
▁sekoittu	-11.1387
▁Hymähtää	-11.1399
▁jäljelle	-11.1399
▁nukahti	-11.1399
▁Melkor	-11.1399
▁tappele	-11.1399
▁jäljet	-11.1399
▁pyyntö	-11.1399
▁haaremi	-11.14
▁sylistä	-11.1404
▁julm	-11.1404
▁roikkuva	-11.1408
▁esitellä	-11.1409
värise	-11.1413
▁taskuunsa	-11.1414
▁Ruskeasilmäi	-11.1416
▁avoimesti	-11.1416
▁päästessä	-11.1421
▁kaappi	-11.1438
▁iskeyty	-11.1439
stelija	-11.1442
▁nostanut	-11.1443
▁seuralaise	-11.1453
▁kiinty	-11.1456
▁Liz	-11.1462
▁pitelemä	-11.1468
▁avoime	-11.1474
▁Sousuke	-11.1477
▁hieraisi	-11.1477
▁röyhke	-11.1477
▁salakuljettaja	-11.1477
▁vaivihkaa	-11.1477
▁varovainen	-11.1477
▁Waalid	-11.1477
▁miehellä	-11.1477
▁seurauksena	-11.1477
▁kusipää	-11.1477
▁aavista	-11.1477
▁tällaisen	-11.1477
▁kolmikon	-11.1477
▁leffa	-11.1477
▁Kirja	-11.1478
▁säikähtäneenä	-11.1478
▁väänsi	-11.1479
▁tarkoituksella	-11.1479
▁aave	-11.148
▁korvia	-11.148
▁epäusko	-11.1481
miselle	-11.1484
▁raotti	-11.1484
▁kummallinen	-11.1488
▁Hunk	-11.1492
▁astuessaan	-11.1493
▁aukko	-11.1494
▁itkenyt	-11.1499
▁hinta	-11.1512
tetyn	-11.1514
▁muutos	-11.1526
▁sanattoma	-11.1526
pojan	-11.1531
zz	-11.1532
▁ihmeellistä	-11.1555
▁juossut	-11.1555
▁sinetöi	-11.1555
▁Cindy	-11.1555
▁sairastuvan	-11.1555
▁sinisilmäinen	-11.1555
▁Niilo	-11.1556
▁naurahdus	-11.1556
▁estämään	-11.1556
▁demoni	-11.1557
▁järkyttä	-11.1557
▁kukkia	-11.1558
▁kirjoittanut	-11.1559
▁tarkasteli	-11.1565
▁kaartu	-11.1566
▁kyyneleen	-11.1569
▁iskenyt	-11.1577
▁kurkkuunsa	-11.1578
▁kokoontu	-11.1579
▁murahta	-11.1586
Hiroki	-11.1614
poliisi	-11.1615
▁lähtevän	-11.1623
▁Iso	-11.1626
▁rikollis	-11.1632
ttömyyde	-11.1633
Halua	-11.1633
▁Wataru	-11.1633
▁hampaitaan	-11.1633
▁miljoona	-11.1633
▁tukahdutta	-11.1633
▁Satochi	-11.1633
▁etusorme	-11.1633
järjestelmä	-11.1633
▁Usopp	-11.1633
▁taatusti	-11.1633
▁vahvista	-11.1633
▁ääri	-11.1636
▁päämaja	-11.1636
▁hakeutu	-11.1638
▁Rotor	-11.1638
▁tapet	-11.1641
▁koittaa	-11.1646
▁äänettömästi	-11.1648
Vittu	-11.1664
▁opiskelija	-11.1671
▁Cas	-11.1681
100	-11.1689
▁kahle	-11.1697
▁pers	-11.17
▁yleise	-11.17
Varsin	-11.1705
▁irokeesi	-11.1713
▁Varovaisesti	-11.1713
▁häiritsi	-11.1713
projekti	-11.1713
▁päätteeksi	-11.1713
▁baarimiko	-11.1713
▁sodassa	-11.1713
▁suurimma	-11.1713
▁johtuu	-11.1713
▁eteisen	-11.1713
▁kurkussa	-11.1714
▁vajoa	-11.1715
AR	-11.1715
▁suurempaa	-11.1716
▁pulssi	-11.1716
▁tiivis	-11.1718
▁lennä	-11.1718
▁mahtoi	-11.1718
▁otteessa	-11.1718
▁haikea	-11.172
▁irrottaa	-11.1722
▁ohut	-11.1722
▁kiusaantunee	-11.1723
▁kainalossa	-11.1723
▁tavallinen	-11.1724
▁hakee	-11.1726
▁todellinen	-11.1727
▁hetkeäkään	-11.1727
teltava	-11.1729
▁mielikuva	-11.1731
ovelle	-11.1735
rvet	-11.1737
▁valittaa	-11.1742
▁pysynyt	-11.1745
▁otettu	-11.1758
ioni	-11.1762
▁kotoa	-11.1763
▁hämä	-11.177
laukku	-11.1775
▁henkivartijoide	-11.1785
▁murska	-11.1788
▁Ilme	-11.179
▁molemmille	-11.1793
▁poikkeuksellise	-11.1793
▁Arthur	-11.1793
▁kehdannut	-11.1793
▁kiljaisi	-11.1793
▁alakertaan	-11.1793
▁paniikki	-11.1793
▁Keittiö	-11.1793
▁tönäisi	-11.1793
▁ruhtina	-11.1793
▁kummallekin	-11.1793
▁rakkaudesta	-11.1794
▁sihahti	-11.1794
▁levätä	-11.1794
Enemmän	-11.1796
▁hivel	-11.1796
▁painokkaasti	-11.1796
▁arvannut	-11.1797
▁huolellisesti	-11.1798
▁roski	-11.1805
▁myötätunto	-11.1811
▁gr	-11.1813
▁isompi	-11.1818
▁epäilykse	-11.182
utumis	-11.1824
▁kantautu	-11.1824
▁kallo	-11.1844
▁laantu	-11.1856
▁kehtaa	-11.1858
▁varattu	-11.186
kauppa	-11.186
▁kiinnostava	-11.1872
▁ajatuksissaan	-11.1873
▁vierekkäin	-11.1873
Helvetin	-11.1873
▁maininnut	-11.1873
▁ryömi	-11.1874
▁kumpaakin	-11.1874
▁nurmi	-11.1874
▁luonnon	-11.1874
▁tauon	-11.1874
▁huokasi	-11.1874
▁vaitonais	-11.1875
▁hautajais	-11.1875
▁kurotti	-11.1877
▁näkevänsä	-11.188
▁jonain	-11.1881
Muistatko	-11.1881
▁näkemi	-11.1882
▁kuoleva	-11.1883
▁puheeksi	-11.1884
▁Kuulin	-11.1885
▁pinta	-11.1886
▁perhettä	-11.189
▁kirjoitettu	-11.1897
▁surullisena	-11.19
▁pello	-11.1907
▁huolehdi	-11.1908
▁toistu	-11.1909
▁kohoava	-11.1917
▁äkki	-11.1922
uistis	-11.1925
▁huvittava	-11.1929
▁synti	-11.1933
vuosi	-11.1941
▁isomma	-11.1952
▁Drace	-11.1955
▁Gratteri	-11.1955
▁Sihvonen	-11.1955
▁yhteydessä	-11.1955
▁täytynyt	-11.1955
▁kaksois	-11.1955
▁epäselvä	-11.1955
▁valtakunta	-11.1956
▁jokseenkin	-11.1958
▁mustien	-11.1958
▁vastakkaise	-11.1958
▁haltioiden	-11.1958
▁sydämessään	-11.1961
▁pettyneenä	-11.1963
▁hiuksissa	-11.1963
▁viitsinyt	-11.1964
▁kädelle	-11.1966
▁kiitollis	-11.1969
▁innokkaasti	-11.1972
ruskeatukkainen	-11.1976
▁tarttuma	-11.1982
▁huume	-11.1992
▁kohottautu	-11.1995
▁nuoremma	-11.2004
▁hyökkääjä	-11.2004
▁paikat	-11.2025
Pelkä	-11.203
▁palautu	-11.2036
▁ajatuksiinsa	-11.2037
▁pyyhkeen	-11.2037
▁noudatta	-11.2037
▁hetkestä	-11.2037
▁Pepper	-11.2037
▁elokuvi	-11.2037
▁hiljaisuutta	-11.2039
▁Kuulee	-11.204
▁taistele	-11.2042
▁pyörähti	-11.2048
▁alkaneet	-11.2051
▁leski	-11.206
▁epäilyttävä	-11.2068
▁tyrmisty	-11.208
▁opiskeli	-11.2083
▁haudat	-11.2087
alus	-11.2089
nruskeahiuksisen	-11.2109
▁Meneldil	-11.2119
▁parhaiten	-11.2119
▁pudonnut	-11.2119
▁perhos	-11.2119
▁mulkoili	-11.2119
▁haavoja	-11.212
▁puhdista	-11.212
▁ilmeettömä	-11.212
▁ennätti	-11.212
Varmasti	-11.2124
▁lihakset	-11.2125
▁kyllästynyt	-11.213
▁parkaisi	-11.2132
▁tyhjentä	-11.2134
▁pahoillaan	-11.2136
▁kohtelias	-11.2137
▁saadessaan	-11.2139
▁farkku	-11.214
▁työntö	-11.2141
▁vieraat	-11.2143
Nuku	-11.2143
▁jäätävä	-11.2171
▁naur	-11.2175
immillaan	-11.2176
▁huomaut	-11.218
▁ruutu	-11.2186
Tuskin	-11.2189
▁selitystä	-11.2196
Elias	-11.22
▁ilkikurise	-11.2203
▁pimeydessä	-11.2203
▁saattelemana	-11.2203
▁ansainnut	-11.2203
▁avaimet	-11.2203
▁ryhti	-11.2203
▁hemmetin	-11.2203
▁kenestä	-11.2204
▁utelee	-11.2204
▁salkku	-11.221
▁virallisesti	-11.2213
Kumpikin	-11.2215
▁välttää	-11.2228
ttomalta	-11.2235
opiskel	-11.2237
▁yksinäise	-11.2241
▁vierashuone	-11.2281
▁TYTÄR	-11.2287
▁ärsytti	-11.2287
▁käännähti	-11.2287
▁yläkerra	-11.2287
▁puhelimessa	-11.2287
▁tytöt	-11.2287
▁Lähettäjä	-11.2287
▁sametti	-11.2287
▁Sirkka	-11.2288
▁nolostuneena	-11.2288
▁Shelke	-11.2288
▁hautasi	-11.2289
▁Sasha	-11.2289
▁urheilu	-11.229
▁Liian	-11.229
ffe	-11.2291
▁tipahti	-11.2291
▁johdatti	-11.2292
▁mainita	-11.2294
▁lukema	-11.2295
▁neido	-11.2296
▁kiertyi	-11.2299
▁huomaten	-11.2303
▁Martin	-11.2304
▁ajatellen	-11.2305
▁miettimättä	-11.2307
▁hautaa	-11.2316
▁kovettu	-11.2343
▁uteliaa	-11.2357
▁inhottava	-11.237
Professori	-11.2371
▁Mifune	-11.2371
▁kuolonsyöj	-11.2371
▁protestoi	-11.2371
▁valehdella	-11.2371
▁äärellä	-11.2371
▁käsivarteen	-11.2371
▁varmuuden	-11.2371
▁yhteinen	-11.2372
▁Yritin	-11.2372
▁Caleth	-11.2372
▁asennon	-11.2372
▁kiitollisena	-11.2372
▁haistoi	-11.2372
▁with	-11.2373
▁puuskaan	-11.2374
▁pelastu	-11.2374
▁jätetty	-11.2375
▁lennähti	-11.2375
Oletteko	-11.2376
▁syleilyyn	-11.2377
▁lunta	-11.238
▁kääntänyt	-11.2381
▁pidempäänsä	-11.239
▁Sharma	-11.239
▁viimeistään	-11.2391
▁katseeseen	-11.2392
▁sokeri	-11.2396
Jatka	-11.2396
▁neula	-11.2399
▁kuljetti	-11.2401
kimppu	-11.2402
Saatana	-11.2404
▁ulvo	-11.2405
▁onnesta	-11.2406
▁vaatteen	-11.2444
Közi	-11.2444
▁Beatrix	-11.2457
▁molempia	-11.2457
▁Melody	-11.2457
▁Seifer	-11.2457
▁pudisteli	-11.2457
▁olkapäille	-11.2457
▁läppäri	-11.2457
▁vaikutuksen	-11.2457
▁annoin	-11.2457
▁happea	-11.2457
▁Sormus	-11.2458
▁vaikeuksia	-11.2458
▁ISÄ	-11.2458
▁liikemiehen	-11.2459
pylvä	-11.2459
▁henkisesti	-11.2459
▁Pyhä	-11.2461
järjestely	-11.2461
▁tosiasia	-11.2461
▁kellari	-11.2461
▁Wade	-11.2462
▁nähtävä	-11.2462
▁kokemusta	-11.2463
▁samanlaisia	-11.2463
▁Jones	-11.2464
▁Punapää	-11.2465
▁ärtyneenä	-11.2465
▁kaksikymmentä	-11.2467
▁sydämeen	-11.247
▁pudotti	-11.2475
▁laskeutuessa	-11.2477
▁suhteellise	-11.2479
▁Nelli	-11.2481
▁kynnet	-11.2487
tulkoon	-11.249
▁saapuessa	-11.2514
llisuudesta	-11.2518
▁suhdetta	-11.2519
Shi	-11.2522
▁vihrei	-11.2527
▁rakkaute	-11.253
▁piilottele	-11.253
▁kävellessä	-11.2532
▁käytännö	-11.2536
▁Aragorn	-11.2543
▁siirtyen	-11.2543
▁alhaalla	-11.2543
▁Eräs	-11.2543
▁aloillaan	-11.2543
▁Toisinaan	-11.2543
▁kahvikuppi	-11.2543
▁rojahti	-11.2543
▁temppu	-11.2543
▁Vaikkei	-11.2543
▁kauttaaltaan	-11.2543
▁sytytti	-11.2543
▁pitävät	-11.2544
▁takamukse	-11.2545
▁hypähti	-11.2546
▁itsellesi	-11.2547
▁tajutessaan	-11.2548
▁kahdelle	-11.2549
▁tarkoituksena	-11.255
▁vaarallista	-11.255
▁pimeys	-11.2551
▁pahempi	-11.2553
▁väisty	-11.2555
▁kestävä	-11.2556
▁väisti	-11.2558
▁leima	-11.256
▁tapahtuneen	-11.2564
▁toiseksi	-11.2571
▁kirjoittama	-11.26
▁pelkki	-11.2607
▁päättäväise	-11.2615
▁hymyillyt	-11.263
▁kuulemastaan	-11.263
▁kerroksessa	-11.263
▁kajahti	-11.263
▁sisimmä	-11.263
▁Erään	-11.2632
▁sellaiset	-11.2632
▁huolissani	-11.2632
▁viinilasi	-11.2633
▁omena	-11.2634
▁lävistä	-11.2634
▁kirkon	-11.2637
▁Hiukset	-11.2638
▁nuotio	-11.2638
▁kiireesti	-11.2639
▁oksa	-11.2642
oikeu	-11.2644
▁unissaan	-11.2646
▁viaton	-11.2647
▁vello	-11.2648
Pysy	-11.2649
▁Aoi	-11.265
▁katsellessa	-11.2686
▁raiska	-11.269
▁vakuutta	-11.2691
▁myöhä	-11.2696
Kiitti	-11.2709
▁vuodat	-11.2713
▁paniikissa	-11.2718
▁sängyltä	-11.2718
▁häiritä	-11.2718
▁hengiltä	-11.2718
▁intiimi	-11.2718
▁nautinnon	-11.2718
▁kulauksen	-11.2718
▁mahdollisuuksia	-11.2718
▁ihaile	-11.2718
▁tosissasi	-11.2718
▁Tähän	-11.2718
häiriö	-11.2719
tömyys	-11.2719
▁suvun	-11.2719
▁Mikasa	-11.2719
▁tarkkailemaan	-11.2721
▁raivoissaan	-11.2721
▁kimeä	-11.2722
▁hiljeni	-11.2723
▁Tuuli	-11.2723
▁Pitää	-11.2723
▁avaimen	-11.2723
▁kuola	-11.2728
▁satunnai	-11.2736
▁herkku	-11.2738
▁runsaa	-11.2747
puoleise	-11.2763
attia	-11.2767
▁ketkä	-11.2774
▁Kyungsoo	-11.2806
▁naimisissa	-11.2806
▁vilkaistessa	-11.2806
▁Hoseok	-11.2806
▁Jotkut	-11.2806
▁sijaitsi	-11.2806
▁punoitta	-11.2807
▁hereille	-11.2807
▁säpsähtämään	-11.2807
▁patsa	-11.2808
▁epäilemättä	-11.281
▁teltta	-11.2811
kuvio	-11.2814
▁vihje	-11.2816
▁keltaise	-11.2817
▁kullan	-11.2819
▁suureen	-11.282
▁Port	-11.2829
▁selästä	-11.2829
▁Soit	-11.2831
Varo	-11.2834
▁räm	-11.2837
▁Oikea	-11.2853
vyötärö	-11.2876
▁tyydyttä	-11.2886
kaupunki	-11.2886
Helvetti	-11.2887
Jean	-11.2887
▁Mustatukka	-11.2889
Juuri	-11.2889
▁Saatua	-11.2894
▁Deidara	-11.2896
▁Kakkosmies	-11.2896
▁Oikawa	-11.2896
▁muistiinpano	-11.2896
▁Aberforth	-11.2896
▁kompastu	-11.2896
▁kyseenalaista	-11.2896
▁tutulta	-11.2896
▁Sakura	-11.2896
▁kiipeä	-11.2896
▁huomanneet	-11.2898
▁puraisi	-11.2898
▁upotta	-11.2898
▁sellanen	-11.2899
▁ystäviensä	-11.2899
▁päällys	-11.29
▁arkisto	-11.2901
vyöry	-11.2901
▁käsinoja	-11.2902
vyyttä	-11.2906
▁äkillis	-11.2909
▁viettämään	-11.2912
▁mieliala	-11.2915
▁tekemisissä	-11.2915
▁Seuraa	-11.2922
▁vedetty	-11.2925
Hö	-11.2925
▁vedet	-11.2945
▁asukka	-11.2982
▁Toimitusjohtaja	-11.2986
▁vastahakoisesti	-11.2986
▁Michael	-11.2986
▁Mulciber	-11.2986
▁kääpiö	-11.2986
▁isosisko	-11.2986
▁moottoripyörä	-11.2986
▁isoäiti	-11.2986
▁seurustele	-11.2986
▁ymmärrykse	-11.2986
▁suunnitteli	-11.2986
▁odottamassa	-11.2986
▁vaihtamaan	-11.2986
▁fakta	-11.2986
▁ärtynee	-11.2988
▁hedelmä	-11.2988
▁Yhdessä	-11.2988
▁olkoon	-11.2988
▁pitelevä	-11.2989
▁Katya	-11.2989
▁pettynee	-11.2989
▁kummissaan	-11.2995
▁sulkeutuivat	-11.2995
▁alkuperä	-11.3036
Christoffer	-11.3077
▁Aerith	-11.3077
▁McGarmiwa	-11.3077
▁ensimmäisellä	-11.3077
▁ikävöi	-11.3077
▁nuorempansa	-11.3077
▁parvekkeelle	-11.3077
▁vahvempi	-11.3077
▁viikonlopun	-11.3077
▁Smith	-11.3077
▁esittäyty	-11.3077
▁kaljuun	-11.3077
▁katsellut	-11.3077
▁kohdistu	-11.3077
▁kurtistu	-11.3077
▁asettuu	-11.3077
▁piristä	-11.3077
▁viivy	-11.3078
▁suojeli	-11.3078
▁Kahvi	-11.3078
▁myöhästy	-11.3078
▁Miyagi	-11.308
▁saippua	-11.308
▁värisevä	-11.3081
▁vilkaisu	-11.3081
▁kolahti	-11.3085
▁suureksi	-11.3086
▁kiehu	-11.3087
▁aikataulu	-11.3087
▁illasta	-11.3096
▁kolmanne	-11.31
▁tutkaili	-11.3105
jälkiä	-11.3108
▁osoittautu	-11.3158
Hermione	-11.3162
▁öljy	-11.3168
▁Imayoshi	-11.3168
▁ensimmäisi	-11.3168
▁huudahtaa	-11.3168
▁tohtori	-11.3168
▁nytkähti	-11.3169
▁jätki	-11.3169
▁tulkita	-11.3169
▁yksinäinen	-11.3169
▁Kuninkaan	-11.317
▁kielsi	-11.317
▁tekosyy	-11.317
▁vaelsi	-11.317
▁Katselee	-11.3171
▁kerrat	-11.3171
▁tuomio	-11.3173
▁lihaksia	-11.3176
▁näkemättä	-11.3176
▁väristen	-11.3176
▁keskeyttää	-11.3178
▁onnettoma	-11.3179
▁helpottanut	-11.318
▁vallassa	-11.318
▁valokuva	-11.3181
▁todennut	-11.3181
▁Missi	-11.3182
reissu	-11.3188
▁seksuaalis	-11.3193
▁innokkaa	-11.3196
▁Ved	-11.3205
▁parane	-11.3211
▁Ainakaa	-11.3235
▁Eggman	-11.3261
kaupungista	-11.3261
▁Akatsuki	-11.3261
▁Remukselle	-11.3261
▁blondi	-11.3261
▁kirjahylly	-11.3261
▁tiuskaisi	-11.3261
▁paheksu	-11.3261
▁murehti	-11.3261
▁näemmä	-11.3261
▁kotitonttu	-11.3261
▁väsymykse	-11.3261
▁romahta	-11.3263
▁suunnattoma	-11.3263
▁vaatteisiin	-11.3263
taistelu	-11.3264
▁hämmästyneenä	-11.3264
▁kiskaist	-11.3265
▁piirre	-11.3266
▁välimatka	-11.3266
▁noidan	-11.3267
▁lienee	-11.3269
▁hoitamaan	-11.3269
▁tuijottavan	-11.3273
▁palatessa	-11.3275
▁parahti	-11.3277
▁Taas	-11.3282
▁hymäht	-11.3291
▁täyt	-11.3294
▁häiritsevä	-11.3304
▁pukuhuone	-11.331
▁esitykse	-11.3316
kotelo	-11.3322
▁lempe	-11.3335
luokan	-11.3336
ttömiä	-11.3344
paikalle	-11.3346
▁McCree	-11.3354
▁autonkuljettaja	-11.3354
▁lyhempää	-11.3354
▁säikähdyksestä	-11.3354
▁hämmennys	-11.3354
▁Mikaru	-11.3354
▁taemmas	-11.3354
▁kyyneleiden	-11.3354
▁omituinen	-11.3354
▁tarpeekseen	-11.3354
▁Yllättäen	-11.3355
▁Oljo	-11.3355
▁Kuului	-11.3355
▁pehmen	-11.3355
▁Miles	-11.3356
▁avonaise	-11.3356
▁lentää	-11.3356
▁vaikuta	-11.3356
▁varpaisiin	-11.3356
▁Sellainen	-11.3356
▁bisse	-11.3356
▁Vartalo	-11.3357
▁toiveikkaa	-11.3357
Käänny	-11.3357
▁Vayne	-11.3358
▁viimeisimmä	-11.3359
▁tähdet	-11.3374
▁kutitta	-11.3379
▁kiep	-11.3381
▁painaessa	-11.3381
KO	-11.339
eläimi	-11.3407
▁oltais	-11.3408
ovea	-11.3415
▁helpotukse	-11.343
▁intensiivis	-11.3449
Haluaisitko	-11.3449
▁Rahikaiselle	-11.3449
▁nielaisee	-11.3449
▁uudemman	-11.3449
▁käyttöön	-11.3449
▁hyväksyvästi	-11.3449
▁lämmitti	-11.3449
▁Gaara	-11.3449
▁tytär	-11.3449
▁sipaisi	-11.345
▁koputus	-11.345
▁jumalauta	-11.345
▁Ohtar	-11.345
▁lämpimät	-11.3451
▁nilkka	-11.3452
▁juotavaa	-11.3452
▁rohkeutta	-11.3454
▁riittäisi	-11.3455
▁kauemmin	-11.3458
▁vaarallinen	-11.3461
▁anova	-11.3462
▁pidätellä	-11.3464
tahra	-11.3468
väline	-11.3472
▁julkais	-11.3502
▁nykäis	-11.3504
Tsunehito	-11.3541
Lisäksi	-11.3541
hoitaja	-11.3543
▁Lavender	-11.3544
▁Yanagi	-11.3544
▁huispaus	-11.3544
▁nöyryyt	-11.3544
▁pettymykse	-11.3544
▁ääliö	-11.3544
Rauhoitu	-11.3544
▁upposi	-11.3544
▁laukesi	-11.3545
▁Eero	-11.3545
▁aallo	-11.3545
▁estänyt	-11.3545
▁hengästyneenä	-11.3545
▁ulkonäkö	-11.3545
▁asunnosta	-11.3547
▁kyläläis	-11.3547
▁voimakkaammin	-11.3549
▁yhdelle	-11.355
▁näkeminen	-11.355
▁työhuoneeseen	-11.3552
▁valtio	-11.3554
Sopii	-11.3569
▁horju	-11.3573
▁puristava	-11.3577
▁hellittä	-11.3592
▁luonteva	-11.3625
▁näkevän	-11.3633
▁pomppasi	-11.364
▁tiiviimmin	-11.364
▁Zabini	-11.364
▁college	-11.364
▁pidempän	-11.364
▁kännissä	-11.364
▁vihollinen	-11.364
▁henkäykse	-11.364
▁vapisten	-11.364
▁silittäen	-11.364
▁Varsinkin	-11.3641
▁kyljessä	-11.3641
laulu	-11.3642
▁vaivoin	-11.3642
Luulisi	-11.3642
▁lätkä	-11.3643
▁yksityiskohta	-11.3643
▁varmistu	-11.3645
▁herkullis	-11.3647
▁kummallista	-11.3649
▁versio	-11.365
▁anteeks	-11.3674
Samoin	-11.3677
▁päte	-11.3679
▁laitettu	-11.3684
vauhti	-11.3696
▁huolettoma	-11.3698
▁Mustahiuksi	-11.3709
▁Asumaniemi	-11.3737
▁paskiainen	-11.3737
▁päinvastoin	-11.3737
▁rekisteröi	-11.3737
▁elettäkään	-11.3737
▁Ayane	-11.3737
▁Isshi	-11.3737
▁vanhimma	-11.3737
▁kakara	-11.3738
Mmh	-11.3738
▁huokaus	-11.3738
▁väsymys	-11.3739
▁jengi	-11.3739
▁koostu	-11.3739
▁hetkellisesti	-11.3739
▁mustelma	-11.374
▁näkemästään	-11.374
▁potkaist	-11.374
▁oikeuden	-11.3742
▁paketti	-11.3743
▁vuosikymmen	-11.3753
▁kaulus	-11.376
audan	-11.3763
▁kuullen	-11.3764
▁havahtu	-11.3785
▁mielenkiintoise	-11.3787
▁umpeen	-11.3835
▁kaksoisolento	-11.3835
▁oleskelu	-11.3835
▁Kääntyy	-11.3835
▁Regulus	-11.3835
▁pysähdy	-11.3835
Löysi	-11.3835
▁vastalause	-11.3835
▁tuumasi	-11.3836
▁Ruoka	-11.3836
▁riuhtais	-11.3836
▁lounaa	-11.3836
▁minkäänlaisia	-11.3836
Huomenna	-11.3836
ttomuudesta	-11.3837
▁Osku	-11.3838
▁ilmiinty	-11.384
▁tavanneet	-11.3841
▁umpi	-11.3844
▁kiehto	-11.3863
▁määrit	-11.3874
hoito	-11.3882
▁Ajatukse	-11.3888
paino	-11.3906
▁Belby	-11.3934
▁Cloud	-11.3934
▁Poppy	-11.3934
▁mieluiten	-11.3934
▁horisont	-11.3934
▁lääkintä	-11.3934
▁ojentaen	-11.3934
▁ymmärrettävä	-11.3934
▁johdosta	-11.3934
▁kiinteä	-11.3934
▁joukkueenjohtaj	-11.3934
▁sopersi	-11.3934
▁Hakuei	-11.3934
▁Siniharmaa	-11.3935
▁kiitokse	-11.3937
▁kidutta	-11.3937
▁vilkaista	-11.394
▁sekava	-11.3974
▁Pii	-11.3978
▁piirty	-11.3982
▁kiusallise	-11.4001
▁joutuva	-11.4029
▁Alfred	-11.4034
▁Garnet	-11.4034
▁Kysymys	-11.4034
▁kenkänsä	-11.4034
▁kuningattaren	-11.4034
▁kyykisty	-11.4034
▁käsivarret	-11.4034
▁tanssilattia	-11.4034
▁hylkää	-11.4034
▁katsahtaa	-11.4034
▁minussa	-11.4034
▁rohkelikko	-11.4034
▁vahvistu	-11.4034
▁luihuis	-11.4034
▁kahdella	-11.4034
▁örkki	-11.4034
▁virnuile	-11.4034
▁pienempi	-11.4034
▁Leonius	-11.4035
▁lipasto	-11.4035
▁Koulu	-11.4035
▁tärkeintä	-11.4035
▁happama	-11.4036
levy	-11.4037
▁veitsi	-11.4038
▁voimistu	-11.4038
▁Valenti	-11.4041
▁vyötärön	-11.4053
▁kärj	-11.4094
ttomina	-11.411
▁työntekijöi	-11.4111
toveriaan	-11.4112
▁pidempää	-11.4125
▁Harmaa	-11.4126
Teräväpiirteinen	-11.4135
▁Watson	-11.4135
▁Zacharias	-11.4135
▁ryhdistäyty	-11.4135
▁suudellut	-11.4135
▁yllätykseksi	-11.4135
▁ympyrä	-11.4135
▁punehtu	-11.4135
▁aattelin	-11.4135
▁visusti	-11.4135
▁kengän	-11.4135
▁nenärätti	-11.4135
▁Jälleen	-11.4135
▁jengiläis	-11.4136
▁kysymyksiin	-11.4136
▁hengittämään	-11.4137
Ilmeisesti	-11.4138
▁tyytyväiseltä	-11.4139
▁piirteitä	-11.4139
▁kyynärpäi	-11.4139
▁napsautti	-11.4139
▁mittään	-11.414
▁tyyni	-11.414
▁laituri	-11.4142
▁kykenevä	-11.4148
▁Pelkkä	-11.4151
näköisen	-11.4173
Miltä	-11.4177
▁Ystäv	-11.42
▁panna	-11.4203
Yhde	-11.4222
▁erilaisi	-11.4223
▁Kyseessä	-11.4237
▁Pidempi	-11.4237
▁lysähtä	-11.4237
▁tirskahti	-11.4237
▁Mirithi	-11.4237
▁myöntävästi	-11.4237
▁Eliaksesta	-11.4237
▁eteisessä	-11.4237
▁halveksi	-11.4237
▁Käveli	-11.4237
▁huvittunut	-11.4237
▁hyung	-11.4238
▁raahautu	-11.4238
▁hölmistyneenä	-11.4238
▁istahtaa	-11.4238
▁nähneensä	-11.4239
Pyydä	-11.4239
Kääntää	-11.4241
Shinya	-11.4242
▁pahinta	-11.4244
▁halata	-11.4244
▁edisty	-11.425
▁hieka	-11.4251
▁Vetä	-11.4262
kentän	-11.4262
ound	-11.4275
▁kansio	-11.4294
aikojen	-11.4321
▁pahemma	-11.4324
▁äänettömä	-11.4325
pilvet	-11.4327
▁syleily	-11.4334
▁voitonriemu	-11.4337
▁Gavroche	-11.434
▁Erwin	-11.434
▁monimutkais	-11.434
▁kohdalta	-11.434
▁nieleskel	-11.4341
▁kaiketi	-11.4341
▁hitusen	-11.4341
▁kupli	-11.4341
▁linnun	-11.4341
▁keneltä	-11.4341
▁etunime	-11.4341
▁kylpyhuoneeseen	-11.4343
▁kaakao	-11.4344
▁Johann	-11.4344
▁synkästi	-11.4344
▁Diego	-11.4345
▁vajote	-11.4345
“	-11.4346
▁erinomais	-11.4346
▁voan	-11.435
▁virnistä	-11.4356
▁Käytävä	-11.4356
▁viitate	-11.4363
▁harmaanruskea	-11.4377
▁Osgiliath	-11.4445
▁Pöydä	-11.4445
▁luottamukse	-11.4445
▁työpöytänsä	-11.4445
▁hyväntuulis	-11.4445
▁keisari	-11.4445
▁teekuppi	-11.4445
riekale	-11.4445
▁Melkein	-11.4445
▁pieleen	-11.4445
▁hoidettu	-11.4445
▁selityksen	-11.4445
▁vastakkain	-11.4446
▁höpö	-11.4447
▁koukist	-11.4447
Hiljaa	-11.4448
▁allekirjoit	-11.4448
▁kipinä	-11.445
asentoon	-11.4451
vaatteet	-11.4451
▁ympäröivä	-11.4457
▁sijoit	-11.4462
▁vamma	-11.4468
ärkeä	-11.4479
Paras	-11.4502
ministeriö	-11.4505
▁vaarallisi	-11.4516
▁mahdoton	-11.4519
▁heijas	-11.4532
▁enimmäkseen	-11.455
▁hörppäsi	-11.455
▁rangaistus	-11.455
▁Lehdolle	-11.455
▁Whisper	-11.455
▁lapsuuden	-11.455
▁vampyyri	-11.455
▁irtaantu	-11.455
▁mainitsi	-11.455
▁nyrpist	-11.455
▁kulkenut	-11.455
kirjaimellisesti	-11.455
▁pyynnö	-11.455
▁meinannut	-11.455
▁edetä	-11.4551
▁punaviini	-11.4551
▁näihin	-11.4553
▁katkaisi	-11.4554
▁nauha	-11.4555
▁sitoutu	-11.4555
▁kenet	-11.4557
yhtiö	-11.4557
mielenkiintoista	-11.4569
▁syventy	-11.4569
▁voimakkai	-11.4583
▁Nousi	-11.4584
▁tempa	-11.4592
Anteeks	-11.4595
rikollisjärjestö	-11.4599
▁seitsemä	-11.4624
▁varovaise	-11.464
▁Auringon	-11.4656
▁epäillyt	-11.4656
materiaali	-11.4656
▁Hagrid	-11.4656
▁Irkoroff	-11.4656
▁Stephen	-11.4656
▁WRO	-11.4656
▁tiedusteli	-11.4656
▁purjehti	-11.4656
▁Kuningas	-11.4656
▁haukotteli	-11.4656
▁palvelijoi	-11.4656
▁pilkallisesti	-11.4656
▁leualle	-11.4656
▁Amanda	-11.4656
▁neuvottelu	-11.4656
▁johtunut	-11.4657
▁Futami	-11.4657
▁matkalaukku	-11.4657
▁liimautu	-11.4657
▁paennut	-11.4659
▁pyöräyttää	-11.4659
▁vuoteessa	-11.466
▁valoisa	-11.4662
▁tiputta	-11.4662
▁murheellis	-11.4662
▁painostava	-11.4663
opettaja	-11.4664
suunnitelma	-11.4665
▁voihki	-11.4666
▁parkkipaik	-11.4671
▁polvistu	-11.4674
Koske	-11.4674
kahvi	-11.4678
aukosta	-11.4684
hetki	-11.4699
Neiti	-11.4699
▁kopio	-11.4703
▁turvautu	-11.4707
VI	-11.4749
▁urhe	-11.4761
▁räjähti	-11.4764
▁Honkajoki	-11.4764
▁Jyou	-11.4764
▁Pantterimainen	-11.4764
▁Todellisuudessa	-11.4764
▁rohkaisevasti	-11.4764
▁vahvisti	-11.4764
▁käärö	-11.4764
▁mahdollinen	-11.4764
▁Robert	-11.4764
▁sivusilmällä	-11.4764
▁kauluspaidan	-11.4764
▁Mitsuki	-11.4764
▁kiihko	-11.4764
▁tarrasi	-11.4765
▁työhön	-11.4765
▁Sormuks	-11.4765
▁hunaja	-11.4766
▁kielletty	-11.4766
▁Rouva	-11.4766
▁makkari	-11.4767
▁Tällai	-11.4776
▁rajoit	-11.4836
▁kykenemätt	-11.4847
▁kirkkai	-11.4851
▁Ulko	-11.4859
▁kampp	-11.4863
▁viitto	-11.4871
▁Kirsikalle	-11.4872
▁Moriarty	-11.4872
▁Shigure	-11.4872
▁suudelmia	-11.4872
▁salaisuuksi	-11.4872
▁Juichi	-11.4872
▁tytölle	-11.4873
▁laakso	-11.4873
▁maksoi	-11.4873
▁naarmu	-11.4873
▁vuoristo	-11.4873
huomaamattomasti	-11.4873
▁kerkesi	-11.4873
▁Maaret	-11.4874
▁Severuksell	-11.4875
▁tuhansi	-11.4875
▁hetero	-11.4878
▁korona	-11.4884
▁Vilkaisi	-11.4885
▁pyörte	-11.4891
▁turvavyö	-11.4892
▁Jonas	-11.49
▁jäykkä	-11.4915
▁kiivas	-11.4928
▁Danzo	-11.4929
▁mahdollisuu	-11.4937
tauti	-11.4949
▁avuttoma	-11.496
▁ivalli	-11.4962
rangaistukse	-11.4982
▁Estelmo	-11.4982
▁Matsumoto	-11.4982
▁yhteyden	-11.4982
▁Keishin	-11.4982
▁vihertävä	-11.4982
▁käsittämättömä	-11.4982
▁Näkee	-11.4982
▁kaikkoontu	-11.4982
▁Tassu	-11.4983
▁tarrautu	-11.4984
▁kiristyi	-11.4984
▁Odotta	-11.4985
▁liikkein	-11.4987
Ajattele	-11.4988
▁Lattia	-11.4991
Vielä	-11.4995
paikalla	-11.4999
ikkoon	-11.501
maisillaan	-11.5013
▁esittele	-11.5016
▁naris	-11.5017
▁huonetoveri	-11.5036
▁ammee	-11.5051
▁epäuskoise	-11.5072
▁säikäh	-11.5088
▁hengähtää	-11.5093
▁samanaikaisesti	-11.5093
▁Hyuga	-11.5093
▁pariskunta	-11.5093
▁kumpaakaan	-11.5094
▁frendi	-11.5094
▁kroppa	-11.5094
▁paskiais	-11.5094
▁kuohu	-11.5094
▁epätasais	-11.5094
▁huumaava	-11.5094
▁harkita	-11.5094
▁vaikeroi	-11.5094
▁Antille	-11.5094
▁upotti	-11.5095
▁kaventu	-11.5096
▁läheisyydestä	-11.5096
▁Sisällä	-11.5096
▁tiheä	-11.5097
Sinua	-11.51
▁Vilkaise	-11.5101
▁Laske	-11.5104
▁hiippail	-11.5105
▁Viholli	-11.5108
kaupalla	-11.5112
▁patjaa	-11.5116
parta	-11.5116
▁Askel	-11.5145
▁sinetti	-11.5179
järjestyksessä	-11.5206
▁Cherry	-11.5206
▁Herumor	-11.5206
▁haarniska	-11.5206
▁työskenteli	-11.5206
▁ylhäällä	-11.5206
Tylyaho	-11.5206
▁viiruiksi	-11.5206
▁kadonneet	-11.5206
▁Lämmin	-11.5206
▁Frodo	-11.5206
▁naamioitunee	-11.5206
▁kannettava	-11.5207
▁rukoili	-11.5207
▁Ishin	-11.5207
▁esimerkkiä	-11.5207
▁taivaalla	-11.5207
▁punaisina	-11.5207
▁Monet	-11.5207
▁Paaji	-11.5208
Tulkaa	-11.5208
▁hymyillessä	-11.5209
▁puolittain	-11.5209
▁saarna	-11.5209
▁onnekas	-11.5218
▁vaivautunee	-11.5219
▁auringo	-11.5221
aikoina	-11.5222
▁kakkosmiehe	-11.5238
▁Tunte	-11.5251
porta	-11.5267
▁Vastaukse	-11.5275
kahva	-11.5277
▁kokenee	-11.5295
Pakko	-11.5295
▁kevy	-11.5313
▁Ensimmäist	-11.5319
▁esimiestään	-11.5319
▁todellisuuteen	-11.5319
▁treffeille	-11.5319
▁rehellinen	-11.5319
▁vastaväitte	-11.5319
▁väläytti	-11.5319
▁sähähti	-11.532
▁jäljessä	-11.532
▁Aatos	-11.532
▁epäreilu	-11.532
▁tiputti	-11.532
▁vaikersi	-11.532
▁Takeru	-11.532
▁tassu	-11.532
▁sellaisella	-11.532
▁ruveta	-11.532
ruskeahiuksista	-11.5321
▁öisin	-11.5321
▁Marius	-11.5325
▁verrat	-11.5336
▁pyörty	-11.5339
Ymmärrä	-11.534
▁suonissa	-11.5342
aattori	-11.5345
asiakkai	-11.5369
▁annos	-11.5391
▁Geralt	-11.5434
▁Minyeon	-11.5434
▁Mobotropolikse	-11.5434
▁biologi	-11.5434
▁parvekkeen	-11.5434
▁välkky	-11.5434
▁jäntevä	-11.5434
▁metriä	-11.5434
▁Hux	-11.5434
▁kommentti	-11.5434
▁Barty	-11.5434
▁hartaasti	-11.5435
▁puolustus	-11.5435
▁Ikkuna	-11.5435
▁vuoteella	-11.5435
▁kaikeksi	-11.5435
▁tunge	-11.5443
▁lukemattomi	-11.5453
▁tarjoama	-11.5454
Miksei	-11.5454
valtakunn	-11.5455
▁supis	-11.5456
▁viehät	-11.5462
▁Terä	-11.5466
Jätä	-11.5471
▁pink	-11.549
▁kultaise	-11.5511
▁Chopper	-11.5551
▁Izumi	-11.5551
▁kaupungilla	-11.5551
▁mysteeri	-11.5551
▁pikkuveljen	-11.5551
▁yksinkertainen	-11.5551
▁Hokage	-11.5551
▁varuillaan	-11.5551
päällikkö	-11.5551
▁poskella	-11.5551
▁löytäneet	-11.5551
▁rakkaalleen	-11.5551
▁tarttuen	-11.5551
▁käväisi	-11.5551
▁Mafia	-11.5551
▁Salman	-11.5551
▁salaperäise	-11.5551
▁kummallakin	-11.5551
▁taivaalta	-11.5552
▁hypätä	-11.5552
▁epäluuloise	-11.5554
▁tarttuva	-11.5556
▁selitä	-11.5559
lämmit	-11.5563
▁sarka	-11.5568
Hikaru	-11.5569
▁ottama	-11.5572
▁trans	-11.5585
▁pitäny	-11.5588
▁siul	-11.5603
Huom	-11.5632
▁samoi	-11.5657
▁ilm	-11.5662
pöydältä	-11.5666
▁hölmisty	-11.5668
Tervetuloa	-11.5668
▁laboratorio	-11.5668
▁makuuhuoneesta	-11.5668
▁piilolinssiä	-11.5668
▁kateellinen	-11.5668
▁äännähti	-11.5668
▁Ailinel	-11.5668
▁Natalia	-11.5668
▁jäätelö	-11.5668
▁puutteessa	-11.5668
▁ahdisti	-11.5668
▁kotoisa	-11.5668
▁tapahdu	-11.5668
▁sijaitseva	-11.5669
▁rypy	-11.5669
▁panikoi	-11.5669
▁uppoa	-11.5669
▁treena	-11.5669
▁hurmaava	-11.5669
▁kahvikupi	-11.5669
▁rakennettu	-11.5669
▁Miuku	-11.5669
▁totisesti	-11.5669
kentällä	-11.5669
▁raahasi	-11.5669
▁henkäisee	-11.5669
▁oitis	-11.5669
▁richie	-11.5669
▁maistoi	-11.5669
▁valtakunnan	-11.567
▁Illalla	-11.567
▁kehtasi	-11.5671
▁tykyttä	-11.5671
▁kutitti	-11.5674
▁suojelu	-11.5688
vaihto	-11.5689
▁sammal	-11.5715
▁lääkk	-11.5737
▁tavallisi	-11.5753
Ikävä	-11.5771
▁puner	-11.5785
▁Muumipeiko	-11.5787
▁ensimmäisestä	-11.5787
▁käytöksestä	-11.5787
▁mielikuvitukse	-11.5787
▁Vanhemma	-11.5787
▁hartioiden	-11.5787
▁suunniteltu	-11.5787
▁virnistys	-11.5787
▁hartioille	-11.5787
▁noteera	-11.5788
▁katsahtae	-11.5788
▁Daisy	-11.5788
▁tarkisti	-11.5788
▁Haltia	-11.5788
▁Miettii	-11.5788
▁tummansinise	-11.5788
▁luottamus	-11.579
soturi	-11.5791
▁vanhus	-11.5794
▁selitys	-11.5797
▁sortu	-11.5806
▁kuumotta	-11.5812
ttävissä	-11.5822
▁ruskeasilmäise	-11.5829
▁väsynei	-11.583
▁esimerk	-11.5831
▁loputtoma	-11.5874
▁kaivautu	-11.5875
▁Henkivartija	-11.5908
▁Lennart	-11.5908
▁Lyhempi	-11.5908
▁sarkastisesti	-11.5908
▁vapiseva	-11.5908
▁äärestä	-11.5908
▁äärettömä	-11.5908
▁olkapäiden	-11.5908
▁tärisevi	-11.5908
▁hellyyttä	-11.5908
▁päänsärky	-11.5908
▁Paige	-11.5908
Tapahtu	-11.5908
▁mahtavi	-11.5908
▁sinetin	-11.5908
▁****	-11.5909
▁kertomukse	-11.591
▁mainittu	-11.591
▁tarttuessa	-11.5911
▁You	-11.5912
Ensinnäkin	-11.5913
▁lusika	-11.5914
▁nykyise	-11.5924
juoksu	-11.5931
Istu	-11.5933
▁pamautt	-11.5956
▁harmistu	-11.5979
▁lemmik	-11.5998
rakenne	-11.6002
▁mustasilmäise	-11.602
▁divisioona	-11.603
▁kontrolli	-11.603
▁unelmoi	-11.603
▁ÄITI	-11.603
▁hartiakkaampi	-11.603
▁hetkeltä	-11.603
▁pirteä	-11.603
▁yhteys	-11.603
▁Cosette	-11.603
▁Mäkilä	-11.603
▁Pimeyde	-11.603
▁Monroe	-11.603
▁heilahti	-11.603
▁yhdeksi	-11.603
▁hihkaisi	-11.603
▁nuttura	-11.603
▁vähiten	-11.603
▁Hymyilin	-11.603
▁Poliisi	-11.603
▁lentämään	-11.603
▁äijä	-11.603
▁ymmärrys	-11.603
▁laatikosta	-11.6031
▁isovelj	-11.6031
▁parittaja	-11.6031
▁voitaisiin	-11.6031
▁Metsä	-11.6031
▁Isao	-11.6037
▁hipaise	-11.6039
▁tilaisuu	-11.6043
▁heitto	-11.6044
▁väite	-11.6048
Millainen	-11.605
▁raotta	-11.6053
Kenties	-11.6054
▁valkokasvoi	-11.6087
▁Nopea	-11.614
▁Bellatrix	-11.6153
▁Pehmeä	-11.6153
▁Sinkkonen	-11.6153
▁Yixing	-11.6153
▁laidalla	-11.6153
▁luutnantti	-11.6153
▁vapaaehtoisesti	-11.6153
▁kurtistaen	-11.6153
▁periaatte	-11.6153
▁ratsasti	-11.6153
▁havahdu	-11.6153
▁kammottava	-11.6153
▁ruhje	-11.6153
▁itsemurha	-11.6153
▁lähekkäin	-11.6153
huolimattomasti	-11.6153
▁läimäis	-11.6154
▁vaisusti	-11.6154
▁kultaseni	-11.6154
▁tummempi	-11.6154
▁palvele	-11.6154
▁alttari	-11.6154
▁pehmo	-11.6154
▁tivasi	-11.6154
▁betoni	-11.6155
▁rupesi	-11.6155
▁minea	-11.6156
▁lihaksikas	-11.6157
▁vyötärölle	-11.6157
▁kuoren	-11.6159
▁lusikka	-11.6161
▁lentävä	-11.6162
▁tasaantu	-11.6163
▁Marianna	-11.6164
▁Edelli	-11.6192
Lisää	-11.6237
▁jäljit	-11.6276
▁eebenpuunruske	-11.6278
▁Jungkook	-11.6278
▁Nuuskamuikkuse	-11.6278
▁Pietro	-11.6278
▁Väänänen	-11.6278
▁ghouli	-11.6278
▁hajareisin	-11.6278
▁käsivarren	-11.6278
▁mielipidettä	-11.6278
▁posliini	-11.6278
▁urkkija	-11.6278
▁solisluu	-11.6278
▁kuolleita	-11.6278
▁valloitta	-11.6278
▁henkäys	-11.6278
▁pyjama	-11.6278
▁kushissa	-11.6278
▁lanteille	-11.6279
▁törke	-11.6279
▁siirto	-11.628
▁lähdit	-11.628
▁nousu	-11.628
▁teoria	-11.6281
▁pyörähtä	-11.6282
Fic	-11.6283
▁kuiskaukse	-11.6284
▁Saksa	-11.6287
▁ravistell	-11.6288
▁pahastu	-11.629
▁Paino	-11.629
▁Baap	-11.6291
▁ajel	-11.6301
▁rasva	-11.6301
vaatteita	-11.6306
seksuaali	-11.6371
Yokohama	-11.6405
▁Kävelee	-11.6405
▁POIKA	-11.6405
▁ambulanssi	-11.6405
▁keskuudessa	-11.6405
▁rauhoitella	-11.6405
▁halveksu	-11.6405
▁ilahdu	-11.6405
▁hitaammin	-11.6405
▁ongelmiin	-11.6405
▁pidettävä	-11.6405
▁pidettiin	-11.6405
▁aikaisemma	-11.6405
▁teatteri	-11.6405
▁kristalli	-11.6405
▁vissiin	-11.6405
▁hienovaraise	-11.6405
▁lihaksikkaa	-11.6405
kysymyksi	-11.6405
▁Noriko	-11.6405
▁viulu	-11.6406
▁tyynny	-11.6406
▁tarkenta	-11.6406
▁Alone	-11.6413
▁ajautu	-11.6417
▁etäise	-11.6419
▁oluen	-11.642
▁kaatae	-11.6427
porukan	-11.6428
Halusin	-11.6434
Marco	-11.6434
(	-11.6434
vuoden	-11.6434
▁tuhoutu	-11.6436
▁useamma	-11.6453
kokoelma	-11.6459
tölki	-11.6473
näköisiä	-11.6473
▁Kalkaroks	-11.6489
▁tuijotukse	-11.6519
▁Avustaja	-11.6533
▁Tsunade	-11.6533
▁beverly	-11.6533
▁jengiläinen	-11.6533
▁tervetullut	-11.6533
Britannia	-11.6533
▁sekunnilla	-11.6533
▁Elfias	-11.6533
▁Mielonen	-11.6533
▁käytävillä	-11.6533
▁suortuva	-11.6533
▁stressaa	-11.6533
▁sujautti	-11.6533
▁johtuva	-11.6533
▁sinnuu	-11.6534
paidassa	-11.6534
▁muhun	-11.6534
▁vaikeut	-11.6536
▁ominais	-11.6549
rosvo	-11.6557
Gackt	-11.6564
kauluks	-11.6571
▁välttele	-11.6577
▁Retrikse	-11.6584
▁Ruske	-11.6585
▁Kohot	-11.6602
▁hytis	-11.663
Erityisesti	-11.6663
▁Gabranth	-11.6663
▁Hengitys	-11.6663
▁Isabella	-11.6663
▁Keskustelu	-11.6663
▁ensimmäiseksi	-11.6663
▁hajamielisesti	-11.6663
▁hyökännyt	-11.6663
▁lompakko	-11.6663
▁lähistöllä	-11.6663
▁neutraali	-11.6663
▁stressi	-11.6663
▁äskeinen	-11.6663
▁mieluusti	-11.6663
▁upseeri	-11.6663
▁ryntää	-11.6663
▁asunnolle	-11.6663
▁raskaaksi	-11.6663
▁räjäyt	-11.6663
▁Hannah	-11.6663
▁pidetään	-11.6663
▁julisti	-11.6663
▁kohdannut	-11.6663
▁huohottaen	-11.6663
▁hengenveto	-11.6664
▁parhain	-11.6664
▁lukossa	-11.6664
▁Voitto	-11.6664
▁heräisi	-11.6665
▁näykkäis	-11.6667
Olkaa	-11.6671
▁Cid	-11.6672
▁onneton	-11.6674
ruskeahiuksise	-11.6678
Kuuntele	-11.6679
▁lehdet	-11.6679
▁liikkumattom	-11.6695
tutkimukse	-11.6711
▁selittel	-11.6744
▁tuntemattomi	-11.6746
Loistava	-11.6753
▁keskittynee	-11.6781
▁kolahta	-11.6786
▁johdat	-11.6788
korokke	-11.6788
▁Akhtar	-11.6794
▁eleganti	-11.6794
▁konjakki	-11.6794
▁ryhdy	-11.6794
▁sisällön	-11.6794
▁vaaleaverikkö	-11.6794
▁robotti	-11.6795
▁herrasmies	-11.6795
▁pikkusisko	-11.6795
▁ideoita	-11.6795
▁kuulumisia	-11.6795
▁tarjottimen	-11.6795
▁Kevyt	-11.6795
▁päätökseen	-11.6795
▁nappeja	-11.6795
▁Totuus	-11.6795
▁johtua	-11.6795
▁Ratamo	-11.6795
▁sinussa	-11.6795
▁Aloy	-11.6796
▁odotellessa	-11.6797
▁Koira	-11.6798
▁ratkaise	-11.68
▁kylkilui	-11.6803
▁turhautumi	-11.682
▁summa	-11.6827
henkilö	-11.6829
miehistä	-11.6829
▁Taivas	-11.684
▁ansio	-11.6862
seinää	-11.6864
tulva	-11.6906
▁Eskild	-11.6928
▁pergamentti	-11.6928
▁räjähdyks	-11.6928
Grantaire	-11.6928
▁Hastings	-11.6928
▁Iwaizumi	-11.6928
▁Viistokuja	-11.6928
▁idiooti	-11.6928
▁valehdellut	-11.6928
▁säännöllis	-11.6928
▁avvar	-11.6928
▁Hieman	-11.6928
▁Yasmine	-11.6928
▁useampa	-11.6928
▁kauniilta	-11.6928
▁know	-11.6928
▁tekeillä	-11.6928
▁luopumaan	-11.6928
▁sodasta	-11.6928
▁ryhdi	-11.6929
▁Mutsuki	-11.6929
▁kipinöi	-11.6929
▁Jokela	-11.6929
▁Kureno	-11.6932
▁pahaentei	-11.6934
prosentti	-11.6936
▁aviomieh	-11.6942
Mites	-11.6943
▁haltuun	-11.6944
▁kiinnittyi	-11.6947
▁Kariluodo	-11.699
▁ystävyys	-11.7063
▁Kuramochi	-11.7063
▁Magnus	-11.7063
▁Wright	-11.7063
▁kumartaen	-11.7063
▁mietteissään	-11.7063
▁sairaanhoitaja	-11.7063
pisaroita	-11.7063
▁Helmut	-11.7063
▁kitkerä	-11.7063
▁syötävää	-11.7063
▁kiihottava	-11.7063
▁samoja	-11.7063
▁Grey	-11.7063
▁Jonkun	-11.7064
▁toimittaja	-11.7064
▁kuuliaisesti	-11.7064
▁Jaarli	-11.7064
▁kaltainen	-11.7064
▁kaunein	-11.7064
▁tutkimuksi	-11.7064
▁Torni	-11.7065
▁käynnistä	-11.7066
▁Lähi	-11.7067
▁kiharoi	-11.7069
Täyde	-11.7071
▁kirous	-11.7075
firma	-11.7075
uudeksi	-11.7087
haasteeseen	-11.7088
▁odottaessa	-11.7092
Sulje	-11.7135
▁hallitukse	-11.7156
▁naurahdukse	-11.7179
▁kyynär	-11.7192
▁Dulcy	-11.72
▁Faramir	-11.72
▁Girizaki	-11.72
▁Soobin	-11.72
▁havaitsi	-11.72
▁häivy	-11.72
▁lämmöstä	-11.72
▁myönnettävä	-11.72
▁Lehdolla	-11.72
▁Pixis	-11.72
▁päätöksiä	-11.72
▁takelteli	-11.72
▁kadonneen	-11.72
▁hokage	-11.72
▁korkeintaan	-11.72
▁haastattelu	-11.72
▁alakulo	-11.72
▁Hizaki	-11.72
▁päälaelle	-11.7201
▁käsittely	-11.7202
Pahoittel	-11.7205
▁Toisell	-11.7312
▁Kapteeni	-11.7339
▁Zachary	-11.7339
▁ajatelleeksi	-11.7339
▁ensimmäiseen	-11.7339
▁monsieur	-11.7339
▁nyökätessä	-11.7339
▁räjähdys	-11.7339
▁vaihteeksi	-11.7339
▁virnistellen	-11.7339
▁leijaili	-11.7339
▁totuudenmukaise	-11.7339
▁rinnuksista	-11.7339
▁tehtäviä	-11.7339
▁vajonnut	-11.7339
▁Mirjam	-11.7339
▁karaoke	-11.7339
▁Velho	-11.7339
▁aktivoi	-11.7339
▁pärjäisi	-11.7339
▁varmoja	-11.7339
▁kaappasi	-11.7339
▁juoksuaskel	-11.734
▁takapuolta	-11.734
▁vakavuu	-11.734
Kymmen	-11.7346
▁Päästyä	-11.7348
▁piirtee	-11.7351
▁tarjoutu	-11.7353
▁porautu	-11.7354
▁luenno	-11.7359
▁esimiehe	-11.7373
▁kovemma	-11.738
Draco	-11.7381
Rauski	-11.7381
▁mainos	-11.7391
▁Tummanruskea	-11.7393
▁harhautu	-11.74
kyvyt	-11.7434
▁Aldred	-11.748
▁Ginkaku	-11.748
▁Kahlesalvan	-11.748
▁Pohjois	-11.748
▁jyrkä	-11.748
▁kananlihalle	-11.748
▁kenelläkään	-11.748
▁lujempaa	-11.748
▁olosuhtei	-11.748
▁pergamenti	-11.748
▁tulevaisuudessa	-11.748
▁universumi	-11.748
▁vaaleanpunaise	-11.748
▁Ruhtinas	-11.748
▁anteeksipyytävä	-11.748
▁kimpussa	-11.748
▁vuorokauden	-11.748
▁Musiikki	-11.748
▁hämmentyneinä	-11.748
▁wyatt	-11.748
▁lehteä	-11.748
▁takuulla	-11.748
▁kotoisin	-11.748
▁useat	-11.748
▁miehistö	-11.748
▁siemaisi	-11.748
▁välähtä	-11.7481
▁kakkos	-11.7488
▁häpeil	-11.7505
▁punnit	-11.7553
▁hengitykse	-11.7581
▁takahuonee	-11.7606
▁Rivendell	-11.7623
▁Deadpool	-11.7623
▁Firenze	-11.7623
▁molemmilla	-11.7623
▁pikkujoulu	-11.7623
▁silminnähden	-11.7623
▁vaaleahiuksise	-11.7623
▁kylmyys	-11.7623
▁järkensä	-11.7623
▁viestejä	-11.7623
▁askeleella	-11.7623
▁siviili	-11.7623
▁Ongelma	-11.7623
▁kysäisi	-11.7623
▁tykkäsi	-11.7623
Scorp	-11.7623
▁havaita	-11.7623
▁pizza	-11.7623
▁alaisiaan	-11.7623
▁puhelimesta	-11.7623
▁kohdista	-11.7623
